<unk>	0
<s>	0
</s>	0
▁aaberg	-12.1675
▁aachen	-12.1675
▁aaerialness	-12.1675
▁aalborg	-12.1675
▁aalesund	-12.1675
▁aapa	-12.1675
▁aapas	-12.1675
▁aarau	-12.1675
▁aardvark	-12.1675
▁aardvarks	-12.1675
▁aardwolf	-12.1675
▁aare	-12.1675
▁aaren	-12.1675
▁aargau	-12.1675
▁aargh	-12.1675
▁aarhus	-12.1675
▁aarika	-12.1675
▁aaron	-12.1675
▁aaronic	-12.1675
▁aaronsburg	-12.1675
▁aaronson	-12.1675
▁ab	-12.1675
▁aba	-12.1675
▁abaca	-12.1675
▁abacas	-12.1675
▁abacinate	-12.1675
▁abacist	-12.1675
▁aback	-12.1675
▁abactinal	-12.1675
▁abacus	-12.1675
▁abacuses	-12.1675
▁abad	-12.1675
▁abadan	-12.1675
▁abaddon	-12.1675
▁abaft	-12.1675
▁abagael	-12.1675
▁abagail	-12.1675
▁abalone	-12.1675
▁abalones	-12.1675
▁abampere	-12.1675
▁abana	-12.1675
▁abandon	-12.1675
▁abandoned	-12.1675
▁abandonedly	-12.1675
▁abandoning	-12.1675
▁abandonment	-12.1675
▁abandons	-12.1675
▁abarticulation	-12.1675
▁abase	-12.1675
▁abased	-12.1675
▁abasement	-12.1675
▁abases	-12.1675
▁abash	-12.1675
▁abashed	-12.1675
▁abashedly	-12.1675
▁abashes	-12.1675
▁abashing	-12.1675
▁abashment	-12.1675
▁abasia	-12.1675
▁abasic	-12.1675
▁abasing	-12.1675
▁abatable	-12.1675
▁abate	-12.1675
▁abated	-12.1675
▁abatement	-12.1675
▁abates	-12.1675
▁abating	-12.1675
▁abatis	-12.1675
▁abatises	-12.1675
▁abator	-12.1675
▁abattis	-12.1675
▁abattoir	-12.1675
▁abattoirs	-12.1675
▁abaxial	-12.1675
▁abaxially	-12.1675
▁abaya	-12.1675
▁abayas	-12.1675
▁abb	-12.1675
▁abba	-12.1675
▁abbacies	-12.1675
▁abbacy	-12.1675
▁abbado	-12.1675
▁abbas	-12.1675
▁abbate	-12.1675
▁abbatial	-12.1675
▁abbe	-12.1675
▁abbes	-12.1675
▁abbess	-12.1675
▁abbesses	-12.1675
▁abbeville	-12.1675
▁abbevillian	-12.1675
▁abbey	-12.1675
▁abbeys	-12.1675
▁abbi	-12.1675
▁abbie	-12.1675
▁abbot	-12.1675
▁abbots	-12.1675
▁abbotsen	-12.1675
▁abbotsford	-12.1675
▁abbotson	-12.1675
▁abbotsun	-12.1675
▁abbottson	-12.1675
▁abbottstown	-12.1675
▁abbreviate	-12.1675
▁abbreviated	-12.1675
▁abbreviates	-12.1675
▁abbreviating	-12.1675
▁abbreviation	-12.1675
▁abbreviations	-12.1675
▁abbreviator	-12.1675
▁abbreviators	-12.1675
▁abbye	-12.1675
▁abbyville	-12.1675
▁abcoulomb	-12.1675
▁abdabs	-12.1675
▁abdel	-12.1675
▁abdella	-12.1675
▁abderian	-12.1675
▁abderite	-12.1675
▁abdias	-12.1675
▁abdicable	-12.1675
▁abdicate	-12.1675
▁abdicated	-12.1675
▁abdicates	-12.1675
▁abdicating	-12.1675
▁abdication	-12.1675
▁abdications	-12.1675
▁abdicator	-12.1675
▁abdicators	-12.1675
▁abdomen	-12.1675
▁abdomens	-12.1675
▁abdominal	-12.1675
▁abdominally	-12.1675
▁abdominocentesis	-12.1675
▁abdominoplasty	-12.1675
▁abdominous	-12.1675
▁abdominousness	-12.1675
▁abdominovesical	-12.1675
▁abdu	-12.1675
▁abduce	-12.1675
▁abducent	-12.1675
▁abduct	-12.1675
▁abducted	-12.1675
▁abductee	-12.1675
▁abductees	-12.1675
▁abducting	-12.1675
▁abduction	-12.1675
▁abductions	-12.1675
▁abductor	-12.1675
▁abductors	-12.1675
▁abducts	-12.1675
▁abdulla	-12.1675
▁abdullah	-12.1675
▁abeam	-12.1675
▁abebi	-12.1675
▁abecedarian	-12.1675
▁abecedarians	-12.1675
▁abecedarium	-12.1675
▁abecedarius	-12.1675
▁abecedary	-12.1675
▁abed	-12.1675
▁abednego	-12.1675
▁abel	-12.1675
▁abelard	-12.1675
▁abele	-12.1675
▁abelia	-12.1675
▁abelian	-12.1675
▁abelias	-12.1675
▁abell	-12.1675
▁abelmoschus	-12.1675
▁abelmosk	-12.1675
▁abenaki	-12.1675
▁abenakis	-12.1675
▁abeokuta	-12.1675
▁abercrombie	-12.1675
▁abercromby	-12.1675
▁aberdare	-12.1675
▁aberdeen	-12.1675
▁aberdeenshire	-12.1675
▁aberdonian	-12.1675
▁aberdonians	-12.1675
▁abernant	-12.1675
▁abernon	-12.1675
▁aberrance	-12.1675
▁aberrances	-12.1675
▁aberrancies	-12.1675
▁aberrancy	-12.1675
▁aberrant	-12.1675
▁aberrantly	-12.1675
▁aberrate	-12.1675
▁aberration	-12.1675
▁aberrational	-12.1675
▁aberrations	-12.1675
▁abert	-12.1675
▁aberystwyth	-12.1675
▁abessive	-12.1675
▁abet	-12.1675
▁abetalipoproteinemia	-12.1675
▁abetment	-12.1675
▁abetments	-12.1675
▁abets	-12.1675
▁abetted	-12.1675
▁abetter	-12.1675
▁abetters	-12.1675
▁abetting	-12.1675
▁abettor	-12.1675
▁abettors	-12.1675
▁abeu	-12.1675
▁abey	-12.1675
▁abeyance	-12.1675
▁abeyant	-12.1675
▁abfarad	-12.1675
▁abhenry	-12.1675
▁abhor	-12.1675
▁abhorred	-12.1675
▁abhorrence	-12.1675
▁abhorrent	-12.1675
▁abhorrently	-12.1675
▁abhorrer	-12.1675
▁abhorrers	-12.1675
▁abhorring	-12.1675
▁abhors	-12.1675
▁abib	-12.1675
▁abibs	-12.1675
▁abidance	-12.1675
▁abidances	-12.1675
▁abide	-12.1675
▁abided	-12.1675
▁abider	-12.1675
▁abiders	-12.1675
▁abides	-12.1675
▁abiding	-12.1675
▁abidingly	-12.1675
▁abidjan	-12.1675
▁abie	-12.1675
▁abience	-12.1675
▁abient	-12.1675
▁abies	-12.1675
▁abigael	-12.1675
▁abigail	-12.1675
▁abigails	-12.1675
▁abigale	-12.1675
▁abijah	-12.1675
▁abilene	-12.1675
▁abilities	-12.1675
▁ability	-12.1675
▁abingdon	-12.1675
▁abington	-12.1675
▁abiogenesis	-12.1675
▁abiogenetic	-12.1675
▁abiogenic	-12.1675
▁abiogenist	-12.1675
▁abiosis	-12.1675
▁abiotic	-12.1675
▁abiotrophy	-12.1675
▁abiquiu	-12.1675
▁abirritant	-12.1675
▁abirritate	-12.1675
▁abisha	-12.1675
▁abisia	-12.1675
▁abixah	-12.1675
▁abject	-12.1675
▁abjected	-12.1675
▁abjecting	-12.1675
▁abjection	-12.1675
▁abjectly	-12.1675
▁abjectness	-12.1675
▁abjects	-12.1675
▁abjectus	-12.1675
▁abjuration	-12.1675
▁abjurations	-12.1675
▁abjuratory	-12.1675
▁abjure	-12.1675
▁abjured	-12.1675
▁abjurer	-12.1675
▁abjurers	-12.1675
▁abjures	-12.1675
▁abjuring	-12.1675
▁abkhaz	-12.1675
▁abkhazia	-12.1675
▁abkhazian	-12.1675
▁abkhazians	-12.1675
▁ablactation	-12.1675
▁ablate	-12.1675
▁ablated	-12.1675
▁ablates	-12.1675
▁ablating	-12.1675
▁ablation	-12.1675
▁ablations	-12.1675
▁ablative	-12.1675
▁ablatives	-12.1675
▁ablaut	-12.1675
▁ablauts	-12.1675
▁ablaze	-12.1675
▁able	-12.1675
▁abled	-12.1675
▁ableism	-12.1675
▁ableisms	-12.1675
▁ableist	-12.1675
▁ableists	-12.1675
▁ablepharia	-12.1675
▁ablepsia	-12.1675
▁abler	-12.1675
▁ables	-12.1675
▁ablest	-12.1675
▁ablism	-12.1675
▁abloom	-12.1675
▁ablush	-12.1675
▁ablution	-12.1675
▁ablutionary	-12.1675
▁ablutions	-12.1675
▁ably	-12.1675
▁abmho	-12.1675
▁abnaki	-12.1675
▁abnegate	-12.1675
▁abnegated	-12.1675
▁abnegates	-12.1675
▁abnegating	-12.1675
▁abnegation	-12.1675
▁abnegator	-12.1675
▁abnegators	-12.1675
▁abnormal	-12.1675
▁abnormalise	-12.1675
▁abnormalised	-12.1675
▁abnormalising	-12.1675
▁abnormalities	-12.1675
▁abnormality	-12.1675
▁abnormalize	-12.1675
▁abnormalized	-12.1675
▁abnormalizing	-12.1675
▁abnormally	-12.1675
▁abnormity	-12.1675
▁aboard	-12.1675
▁abocclusion	-12.1675
▁abode	-12.1675
▁aboded	-12.1675
▁abodes	-12.1675
▁aboding	-12.1675
▁abohm	-12.1675
▁abolish	-12.1675
▁abolishable	-12.1675
▁abolished	-12.1675
▁abolisher	-12.1675
▁abolishers	-12.1675
▁abolishes	-12.1675
▁abolishing	-12.1675
▁abolishment	-12.1675
▁abolishments	-12.1675
▁abolition	-12.1675
▁abolitionary	-12.1675
▁abolitionise	-12.1675
▁abolitionised	-12.1675
▁abolitionising	-12.1675
▁abolitionism	-12.1675
▁abolitionist	-12.1675
▁abolitionists	-12.1675
▁abolitionize	-12.1675
▁abolitionized	-12.1675
▁abolitionizing	-12.1675
▁abomasa	-12.1675
▁abomasal	-12.1675
▁abomasum	-12.1675
▁abominable	-12.1675
▁abominably	-12.1675
▁abominate	-12.1675
▁abominated	-12.1675
▁abominates	-12.1675
▁abominating	-12.1675
▁abomination	-12.1675
▁abominations	-12.1675
▁abominator	-12.1675
▁abominators	-12.1675
▁aborad	-12.1675
▁aboral	-12.1675
▁aborally	-12.1675
▁aboriginal	-12.1675
▁aboriginally	-12.1675
▁aboriginalness	-12.1675
▁aboriginals	-12.1675
▁aborigine	-12.1675
▁aborigines	-12.1675
▁aborn	-12.1675
▁aborning	-12.1675
▁abort	-12.1675
▁aborted	-12.1675
▁aborticide	-12.1675
▁abortifacient	-12.1675
▁abortifacients	-12.1675
▁aborting	-12.1675
▁abortion	-12.1675
▁abortionist	-12.1675
▁abortionists	-12.1675
▁abortions	-12.1675
▁abortive	-12.1675
▁abortively	-12.1675
▁aborts	-12.1675
▁abortus	-12.1675
▁abott	-12.1675
▁aboulia	-12.1675
▁aboulias	-12.1675
▁abound	-12.1675
▁abounded	-12.1675
▁abounding	-12.1675
▁aboundingly	-12.1675
▁abounds	-12.1675
▁about	-12.1675
▁abouts	-12.1675
▁above	-12.1675
▁aboveboard	-12.1675
▁aboveground	-12.1675
▁abra	-12.1675
▁abracadabra	-12.1675
▁abrachia	-12.1675
▁abradant	-12.1675
▁abrade	-12.1675
▁abraded	-12.1675
▁abrader	-12.1675
▁abraders	-12.1675
▁abrades	-12.1675
▁abrading	-12.1675
▁abraham	-12.1675
▁abrahams	-12.1675
▁abrahamsen	-12.1675
▁abrahan	-12.1675
▁abramis	-12.1675
▁abramo	-12.1675
▁abramson	-12.1675
▁abran	-12.1675
▁abranchiate	-12.1675
▁abrasion	-12.1675
▁abrasions	-12.1675
▁abrasive	-12.1675
▁abrasively	-12.1675
▁abrasiveness	-12.1675
▁abrasives	-12.1675
▁abraxas	-12.1675
▁abrazo	-12.1675
▁abrazos	-12.1675
▁abreact	-12.1675
▁abreacted	-12.1675
▁abreaction	-12.1675
▁abreacts	-12.1675
▁abreast	-12.1675
▁abri	-12.1675
▁abridge	-12.1675
▁abridged	-12.1675
▁abridgement	-12.1675
▁abridgements	-12.1675
▁abridger	-12.1675
▁abridgers	-12.1675
▁abridges	-12.1675
▁abridging	-12.1675
▁abridgment	-12.1675
▁abridgments	-12.1675
▁abroach	-12.1675
▁abroad	-12.1675
▁abrocoma	-12.1675
▁abrocome	-12.1675
▁abrogate	-12.1675
▁abrogated	-12.1675
▁abrogates	-12.1675
▁abrogating	-12.1675
▁abrogation	-12.1675
▁abrogations	-12.1675
▁abrogator	-12.1675
▁abrogators	-12.1675
▁abroma	-12.1675
▁abroms	-12.1675
▁abronia	-12.1675
▁abrupt	-12.1675
▁abrupter	-12.1675
▁abruptest	-12.1675
▁abruption	-12.1675
▁abruptions	-12.1675
▁abruptly	-12.1675
▁abruptness	-12.1675
▁abrus	-12.1675
▁abruzzi	-12.1675
▁abs	-12.1675
▁absa	-12.1675
▁absaraka	-12.1675
▁absarokee	-12.1675
▁abscess	-12.1675
▁abscessed	-12.1675
▁abscesses	-12.1675
▁abscessing	-12.1675
▁abscind	-12.1675
▁abscinded	-12.1675
▁abscinding	-12.1675
▁abscinds	-12.1675
▁abscise	-12.1675
▁abscised	-12.1675
▁abscises	-12.1675
▁abscising	-12.1675
▁abscissa	-12.1675
▁abscissae	-12.1675
▁abscissas	-12.1675
▁abscission	-12.1675
▁abscond	-12.1675
▁absconded	-12.1675
▁absconder	-12.1675
▁absconders	-12.1675
▁absconding	-12.1675
▁abscondment	-12.1675
▁absconds	-12.1675
▁absecon	-12.1675
▁abseil	-12.1675
▁abseiled	-12.1675
▁abseiler	-12.1675
▁abseilers	-12.1675
▁abseiling	-12.1675
▁abseils	-12.1675
▁absence	-12.1675
▁absences	-12.1675
▁absent	-12.1675
▁absented	-12.1675
▁absentee	-12.1675
▁absenteeism	-12.1675
▁absentees	-12.1675
▁absenting	-12.1675
▁absently	-12.1675
▁absentminded	-12.1675
▁absentmindedly	-12.1675
▁absentmindedness	-12.1675
▁absents	-12.1675
▁abshier	-12.1675
▁absinth	-12.1675
▁absinthe	-12.1675
▁absinthes	-12.1675
▁absinthism	-12.1675
▁absinths	-12.1675
▁absolute	-12.1675
▁absolutely	-12.1675
▁absoluteness	-12.1675
▁absoluter	-12.1675
▁absolutes	-12.1675
▁absolutest	-12.1675
▁absolution	-12.1675
▁absolutism	-12.1675
▁absolutist	-12.1675
▁absolutistic	-12.1675
▁absolutists	-12.1675
▁absolutization	-12.1675
▁absolutize	-12.1675
▁absolutized	-12.1675
▁absolutizes	-12.1675
▁absolutizing	-12.1675
▁absolvable	-12.1675
▁absolve	-12.1675
▁absolved	-12.1675
▁absolver	-12.1675
▁absolvers	-12.1675
▁absolves	-12.1675
▁absolving	-12.1675
▁absolvitory	-12.1675
▁absonant	-12.1675
▁absorb	-12.1675
▁absorbable	-12.1675
▁absorbance	-12.1675
▁absorbate	-12.1675
▁absorbed	-12.1675
▁absorbefacient	-12.1675
▁absorbency	-12.1675
▁absorbent	-12.1675
▁absorbents	-12.1675
▁absorber	-12.1675
▁absorbers	-12.1675
▁absorbing	-12.1675
▁absorbingly	-12.1675
▁absorbs	-12.1675
▁absorptance	-12.1675
▁absorption	-12.1675
▁absorptions	-12.1675
▁absorptive	-12.1675
▁absorptivities	-12.1675
▁absorptivity	-12.1675
▁absquatulate	-12.1675
▁absquatulated	-12.1675
▁absquatulates	-12.1675
▁absquatulating	-12.1675
▁absquatulation	-12.1675
▁abstain	-12.1675
▁abstained	-12.1675
▁abstainer	-12.1675
▁abstainers	-12.1675
▁abstaining	-12.1675
▁abstains	-12.1675
▁abstemious	-12.1675
▁abstemiously	-12.1675
▁abstemiousness	-12.1675
▁abstention	-12.1675
▁abstentions	-12.1675
▁abstergent	-12.1675
▁abstinence	-12.1675
▁abstinent	-12.1675
▁abstinently	-12.1675
▁abstract	-12.1675
▁abstracted	-12.1675
▁abstractedly	-12.1675
▁abstractedness	-12.1675
▁abstracter	-12.1675
▁abstracters	-12.1675
▁abstractest	-12.1675
▁abstracting	-12.1675
▁abstraction	-12.1675
▁abstractionism	-12.1675
▁abstractionist	-12.1675
▁abstractions	-12.1675
▁abstractive	-12.1675
▁abstractly	-12.1675
▁abstractness	-12.1675
▁abstractnesses	-12.1675
▁abstractor	-12.1675
▁abstracts	-12.1675
▁abstriction	-12.1675
▁abstruse	-12.1675
▁abstrusely	-12.1675
▁abstruseness	-12.1675
▁abstruser	-12.1675
▁abstrusest	-12.1675
▁absurd	-12.1675
▁absurder	-12.1675
▁absurdest	-12.1675
▁absurdism	-12.1675
▁absurdisms	-12.1675
▁absurdist	-12.1675
▁absurdists	-12.1675
▁absurdities	-12.1675
▁absurdity	-12.1675
▁absurdly	-12.1675
▁absurdness	-12.1675
▁abubble	-12.1675
▁abudefduf	-12.1675
▁abuja	-12.1675
▁abukir	-12.1675
▁abulia	-12.1675
▁abulias	-12.1675
▁abulic	-12.1675
▁abundance	-12.1675
▁abundances	-12.1675
▁abundant	-12.1675
▁abundantly	-12.1675
▁abura	-12.1675
▁aburas	-12.1675
▁abuse	-12.1675
▁abused	-12.1675
▁abuser	-12.1675
▁abusers	-12.1675
▁abuses	-12.1675
▁abusing	-12.1675
▁abusive	-12.1675
▁abusively	-12.1675
▁abusiveness	-12.1675
▁abustle	-12.1675
▁abut	-12.1675
▁abutilon	-12.1675
▁abutilons	-12.1675
▁abutment	-12.1675
▁abutments	-12.1675
▁abuts	-12.1675
▁abuttal	-12.1675
▁abuttals	-12.1675
▁abutted	-12.1675
▁abutter	-12.1675
▁abutters	-12.1675
▁abutting	-12.1675
▁abuzz	-12.1675
▁abvolt	-12.1675
▁abwatt	-12.1675
▁aby	-12.1675
▁abydos	-12.1675
▁abysm	-12.1675
▁abysmal	-12.1675
▁abysmally	-12.1675
▁abysms	-12.1675
▁abyss	-12.1675
▁abyssal	-12.1675
▁abysses	-12.1675
▁abyssinian	-12.1675
▁abyssinians	-12.1675
▁acacia	-12.1675
▁acacias	-12.1675
▁academe	-12.1675
▁academia	-12.1675
▁academic	-12.1675
▁academical	-12.1675
▁academically	-12.1675
▁academician	-12.1675
▁academicians	-12.1675
▁academicianship	-12.1675
▁academicism	-12.1675
▁academicisms	-12.1675
▁academics	-12.1675
▁academies	-12.1675
▁academise	-12.1675
▁academised	-12.1675
▁academising	-12.1675
▁academism	-12.1675
▁academisms	-12.1675
▁academize	-12.1675
▁academized	-12.1675
▁academizing	-12.1675
▁academy	-12.1675
▁acadia	-12.1675
▁acadian	-12.1675
▁acadians	-12.1675
▁acajou	-12.1675
▁acajous	-12.1675
▁acalculia	-12.1675
▁acaleph	-12.1675
▁acalepha	-12.1675
▁acalephae	-12.1675
▁acalephe	-12.1675
▁acalia	-12.1675
▁acalypha	-12.1675
▁acampo	-12.1675
▁acanthaceae	-12.1675
▁acanthaceous	-12.1675
▁acanthion	-12.1675
▁acanthisitta	-12.1675
▁acanthocephala	-12.1675
▁acanthocephalan	-12.1675
▁acanthocereus	-12.1675
▁acanthocybium	-12.1675
▁acanthocyte	-12.1675
▁acanthocytosis	-12.1675
▁acanthoid	-12.1675
▁acantholysis	-12.1675
▁acanthoma	-12.1675
▁acanthophis	-12.1675
▁acanthopterygian	-12.1675
▁acanthopterygii	-12.1675
▁acanthoscelides	-12.1675
▁acanthosis	-12.1675
▁acanthotic	-12.1675
▁acanthous	-12.1675
▁acanthuridae	-12.1675
▁acanthurus	-12.1675
▁acanthus	-12.1675
▁acanthuses	-12.1675
▁acapnic	-12.1675
▁acapulco	-12.1675
▁acara	-12.1675
▁acaras	-12.1675
▁acardia	-12.1675
▁acariasis	-12.1675
▁acaricide	-12.1675
▁acarid	-12.1675
▁acarida	-12.1675
▁acaridae	-12.1675
▁acarids	-12.1675
▁acarina	-12.1675
▁acarine	-12.1675
▁acarines	-12.1675
▁acaroid	-12.1675
▁acarology	-12.1675
▁acarophobia	-12.1675
▁acarpelous	-12.1675
▁acarpous	-12.1675
▁acarus	-12.1675
▁acatalectic	-12.1675
▁acataphasia	-12.1675
▁acathexia	-12.1675
▁acathexis	-12.1675
▁acaudal	-12.1675
▁acaudate	-12.1675
▁acaulescent	-12.1675
▁acausal	-12.1675
▁accad	-12.1675
▁accalia	-12.1675
▁accede	-12.1675
▁acceded	-12.1675
▁accedence	-12.1675
▁accedences	-12.1675
▁accedes	-12.1675
▁acceding	-12.1675
▁accelerandi	-12.1675
▁accelerando	-12.1675
▁accelerandos	-12.1675
▁accelerant	-12.1675
▁accelerate	-12.1675
▁accelerated	-12.1675
▁accelerates	-12.1675
▁accelerating	-12.1675
▁acceleration	-12.1675
▁accelerations	-12.1675
▁accelerative	-12.1675
▁accelerator	-12.1675
▁accelerators	-12.1675
▁accelerometer	-12.1675
▁accelerometers	-12.1675
▁accent	-12.1675
▁accented	-12.1675
▁accenting	-12.1675
▁accentor	-12.1675
▁accentors	-12.1675
▁accents	-12.1675
▁accentual	-12.1675
▁accentuate	-12.1675
▁accentuated	-12.1675
▁accentuates	-12.1675
▁accentuating	-12.1675
▁accentuation	-12.1675
▁accept	-12.1675
▁acceptability	-12.1675
▁acceptable	-12.1675
▁acceptableness	-12.1675
▁acceptably	-12.1675
▁acceptance	-12.1675
▁acceptances	-12.1675
▁acceptant	-12.1675
▁acceptation	-12.1675
▁acceptations	-12.1675
▁accepted	-12.1675
▁accepter	-12.1675
▁accepters	-12.1675
▁accepting	-12.1675
▁acceptive	-12.1675
▁acceptor	-12.1675
▁acceptors	-12.1675
▁accepts	-12.1675
▁access	-12.1675
▁accessary	-12.1675
▁accessed	-12.1675
▁accesses	-12.1675
▁accessibility	-12.1675
▁accessible	-12.1675
▁accessibleness	-12.1675
▁accessiblenesses	-12.1675
▁accessibly	-12.1675
▁accessing	-12.1675
▁accession	-12.1675
▁accessional	-12.1675
▁accessioned	-12.1675
▁accessioning	-12.1675
▁accessions	-12.1675
▁accessorial	-12.1675
▁accessories	-12.1675
▁accessorise	-12.1675
▁accessorised	-12.1675
▁accessorises	-12.1675
▁accessorising	-12.1675
▁accessorize	-12.1675
▁accessorized	-12.1675
▁accessorizes	-12.1675
▁accessorizing	-12.1675
▁accessory	-12.1675
▁acciaccatura	-12.1675
▁accidence	-12.1675
▁accident	-12.1675
▁accidental	-12.1675
▁accidentally	-12.1675
▁accidentals	-12.1675
▁accidents	-12.1675
▁accidie	-12.1675
▁accidies	-12.1675
▁accipiter	-12.1675
▁accipiters	-12.1675
▁accipitridae	-12.1675
▁accipitriformes	-12.1675
▁accipitrine	-12.1675
▁acclaim	-12.1675
▁acclaimed	-12.1675
▁acclaimer	-12.1675
▁acclaimers	-12.1675
▁acclaiming	-12.1675
▁acclaims	-12.1675
▁acclamation	-12.1675
▁acclamations	-12.1675
▁acclamatory	-12.1675
▁acclimate	-12.1675
▁acclimated	-12.1675
▁acclimates	-12.1675
▁acclimating	-12.1675
▁acclimatisation	-12.1675
▁acclimatise	-12.1675
▁acclimatised	-12.1675
▁acclimatises	-12.1675
▁acclimatising	-12.1675
▁acclimatizable	-12.1675
▁acclimatization	-12.1675
▁acclimatize	-12.1675
▁acclimatized	-12.1675
▁acclimatizer	-12.1675
▁acclimatizers	-12.1675
▁acclimatizes	-12.1675
▁acclimatizing	-12.1675
▁acclivities	-12.1675
▁acclivitous	-12.1675
▁acclivity	-12.1675
▁accokeek	-12.1675
▁accolade	-12.1675
▁accoladed	-12.1675
▁accolades	-12.1675
▁accolading	-12.1675
▁accomac	-12.1675
▁accommodate	-12.1675
▁accommodated	-12.1675
▁accommodates	-12.1675
▁accommodating	-12.1675
▁accommodatingly	-12.1675
▁accommodation	-12.1675
▁accommodational	-12.1675
▁accommodationism	-12.1675
▁accommodationist	-12.1675
▁accommodationists	-12.1675
▁accommodations	-12.1675
▁accommodative	-12.1675
▁accompanied	-12.1675
▁accompanies	-12.1675
▁accompaniment	-12.1675
▁accompaniments	-12.1675
▁accompanist	-12.1675
▁accompanists	-12.1675
▁accompany	-12.1675
▁accompanying	-12.1675
▁accompanyist	-12.1675
▁accomplice	-12.1675
▁accomplices	-12.1675
▁accomplish	-12.1675
▁accomplishable	-12.1675
▁accomplished	-12.1675
▁accomplisher	-12.1675
▁accomplishers	-12.1675
▁accomplishes	-12.1675
▁accomplishing	-12.1675
▁accomplishment	-12.1675
▁accomplishments	-12.1675
▁accorage	-12.1675
▁accord	-12.1675
▁accordance	-12.1675
▁accordant	-12.1675
▁accorded	-12.1675
▁according	-12.1675
▁accordingly	-12.1675
▁accordion	-12.1675
▁accordionist	-12.1675
▁accordionists	-12.1675
▁accordions	-12.1675
▁accords	-12.1675
▁accost	-12.1675
▁accosted	-12.1675
▁accosting	-12.1675
▁accosts	-12.1675
▁accouchement	-12.1675
▁accouchements	-12.1675
▁accoucheur	-12.1675
▁account	-12.1675
▁accountability	-12.1675
▁accountable	-12.1675
▁accountableness	-12.1675
▁accountablenesses	-12.1675
▁accountably	-12.1675
▁accountancy	-12.1675
▁accountant	-12.1675
▁accountants	-12.1675
▁accountantship	-12.1675
▁accounted	-12.1675
▁accounting	-12.1675
▁accounts	-12.1675
▁accouplement	-12.1675
▁accourage	-12.1675
▁accouraged	-12.1675
▁accourages	-12.1675
▁accouraging	-12.1675
▁accouter	-12.1675
▁accoutered	-12.1675
▁accoutering	-12.1675
▁accouterment	-12.1675
▁accouterments	-12.1675
▁accouters	-12.1675
▁accoutre	-12.1675
▁accoutred	-12.1675
▁accoutrement	-12.1675
▁accoutrements	-12.1675
▁accoutres	-12.1675
▁accoville	-12.1675
▁accra	-12.1675
▁accras	-12.1675
▁accredit	-12.1675
▁accreditation	-12.1675
▁accredited	-12.1675
▁accrediting	-12.1675
▁accredits	-12.1675
▁accrescent	-12.1675
▁accrete	-12.1675
▁accreted	-12.1675
▁accretes	-12.1675
▁accreting	-12.1675
▁accretion	-12.1675
▁accretionary	-12.1675
▁accretions	-12.1675
▁accretive	-12.1675
▁accrington	-12.1675
▁accroach	-12.1675
▁accrual	-12.1675
▁accruals	-12.1675
▁accrue	-12.1675
▁accrued	-12.1675
▁accrues	-12.1675
▁accruing	-12.1675
▁acculturate	-12.1675
▁acculturated	-12.1675
▁acculturates	-12.1675
▁acculturating	-12.1675
▁acculturation	-12.1675
▁acculturational	-12.1675
▁acculturative	-12.1675
▁acculturize	-12.1675
▁accumbent	-12.1675
▁accumulate	-12.1675
▁accumulated	-12.1675
▁accumulates	-12.1675
▁accumulating	-12.1675
▁accumulation	-12.1675
▁accumulations	-12.1675
▁accumulative	-12.1675
▁accumulator	-12.1675
▁accumulators	-12.1675
▁accuracies	-12.1675
▁accuracy	-12.1675
▁accurate	-12.1675
▁accurately	-12.1675
▁accurateness	-12.1675
▁accurse	-12.1675
▁accursed	-12.1675
▁accursedly	-12.1675
▁accursedness	-12.1675
▁accurst	-12.1675
▁accusal	-12.1675
▁accusals	-12.1675
▁accusation	-12.1675
▁accusations	-12.1675
▁accusative	-12.1675
▁accusatives	-12.1675
▁accusatorial	-12.1675
▁accusatory	-12.1675
▁accuse	-12.1675
▁accused	-12.1675
▁accuser	-12.1675
▁accusers	-12.1675
▁accuses	-12.1675
▁accusing	-12.1675
▁accusingly	-12.1675
▁accustom	-12.1675
▁accustomed	-12.1675
▁accustoming	-12.1675
▁accustoms	-12.1675
▁ace	-12.1675
▁acebutolol	-12.1675
▁aced	-12.1675
▁acedia	-12.1675
▁acedias	-12.1675
▁aceldama	-12.1675
▁acellular	-12.1675
▁acentric	-12.1675
▁acephalia	-12.1675
▁acephalous	-12.1675
▁acer	-12.1675
▁aceraceae	-12.1675
▁acerate	-12.1675
▁acerb	-12.1675
▁acerbate	-12.1675
▁acerbated	-12.1675
▁acerbates	-12.1675
▁acerbating	-12.1675
▁acerber	-12.1675
▁acerbest	-12.1675
▁acerbic	-12.1675
▁acerbically	-12.1675
▁acerbities	-12.1675
▁acerbity	-12.1675
▁acerola	-12.1675
▁acerose	-12.1675
▁acers	-12.1675
▁acervate	-12.1675
▁acervulus	-12.1675
▁aces	-12.1675
▁acescent	-12.1675
▁acetabula	-12.1675
▁acetabular	-12.1675
▁acetabulum	-12.1675
▁acetal	-12.1675
▁acetaldehyde	-12.1675
▁acetaldol	-12.1675
▁acetals	-12.1675
▁acetamide	-12.1675
▁acetaminophen	-12.1675
▁acetanilide	-12.1675
▁acetanilides	-12.1675
▁acetate	-12.1675
▁acetates	-12.1675
▁acetic	-12.1675
▁acetify	-12.1675
▁acetin	-12.1675
▁acetometer	-12.1675
▁acetonaemia	-12.1675
▁acetonaemic	-12.1675
▁acetone	-12.1675
▁acetonic	-12.1675
▁acetophenetidin	-12.1675
▁acetose	-12.1675
▁acetous	-12.1675
▁acetum	-12.1675
▁acetyl	-12.1675
▁acetylate	-12.1675
▁acetylation	-12.1675
▁acetylcholine	-12.1675
▁acetylcholines	-12.1675
▁acetylene	-12.1675
▁acetylenic	-12.1675
▁acetylic	-12.1675
▁acetylide	-12.1675
▁acetyls	-12.1675
▁acey	-12.1675
▁ach	-12.1675
▁achaar	-12.1675
▁achaea	-12.1675
▁achaean	-12.1675
▁achaeans	-12.1675
▁achaemenid	-12.1675
▁achaenia	-12.1675
▁achaenium	-12.1675
▁achaeniums	-12.1675
▁achaenocarp	-12.1675
▁achaia	-12.1675
▁achalasia	-12.1675
▁achar	-12.1675
▁acharya	-12.1675
▁acharyas	-12.1675
▁achates	-12.1675
▁ache	-12.1675
▁ached	-12.1675
▁achelous	-12.1675
▁achene	-12.1675
▁achenes	-12.1675
▁achenial	-12.1675
▁achenium	-12.1675
▁acheniums	-12.1675
▁achenocarp	-12.1675
▁acherman	-12.1675
▁acheron	-12.1675
▁acheronian	-12.1675
▁acherontia	-12.1675
▁acherontic	-12.1675
▁aches	-12.1675
▁acheson	-12.1675
▁acheta	-12.1675
▁achha	-12.1675
▁achier	-12.1675
▁achiest	-12.1675
▁achievability	-12.1675
▁achievable	-12.1675
▁achieve	-12.1675
▁achieved	-12.1675
▁achievement	-12.1675
▁achievements	-12.1675
▁achiever	-12.1675
▁achievers	-12.1675
▁achieves	-12.1675
▁achieving	-12.1675
▁achille	-12.1675
▁achillea	-12.1675
▁achilleas	-12.1675
▁achilles	-12.1675
▁achimenes	-12.1675
▁achiness	-12.1675
▁achinesses	-12.1675
▁aching	-12.1675
▁achingly	-12.1675
▁achiote	-12.1675
▁achiotes	-12.1675
▁achira	-12.1675
▁achiral	-12.1675
▁achitophel	-12.1675
▁achkan	-12.1675
▁achkans	-12.1675
▁achlamydeous	-12.1675
▁achlorhydria	-12.1675
▁achlorhydric	-12.1675
▁achoerodus	-12.1675
▁acholia	-12.1675
▁achomawi	-12.1675
▁achondrite	-12.1675
▁achondritic	-12.1675
▁achondroplasia	-12.1675
▁achondroplastic	-12.1675
▁achoo	-12.1675
▁achorn	-12.1675
▁achras	-12.1675
▁achroiocythaemia	-12.1675
▁achromat	-12.1675
▁achromatic	-12.1675
▁achromatically	-12.1675
▁achromaticity	-12.1675
▁achromatin	-12.1675
▁achromatinic	-12.1675
▁achromatisations	-12.1675
▁achromatism	-12.1675
▁achromatisms	-12.1675
▁achromatization	-12.1675
▁achromatizations	-12.1675
▁achromatize	-12.1675
▁achromatized	-12.1675
▁achromatizes	-12.1675
▁achromatizing	-12.1675
▁achromatous	-12.1675
▁achromats	-12.1675
▁achromia	-12.1675
▁achromic	-12.1675
▁achy	-12.1675
▁achylia	-12.1675
▁acicula	-12.1675
▁acicular	-12.1675
▁aciculate	-12.1675
▁aciculum	-12.1675
▁acid	-12.1675
▁acidaemia	-12.1675
▁acidemia	-12.1675
▁acidic	-12.1675
▁acidification	-12.1675
▁acidifications	-12.1675
▁acidified	-12.1675
▁acidifier	-12.1675
▁acidifiers	-12.1675
▁acidifies	-12.1675
▁acidify	-12.1675
▁acidifying	-12.1675
▁acidimeter	-12.1675
▁acidimetric	-12.1675
▁acidimetry	-12.1675
▁acidity	-12.1675
▁acidly	-12.1675
▁acidness	-12.1675
▁acidnesses	-12.1675
▁acidophil	-12.1675
▁acidophiles	-12.1675
▁acidophilic	-12.1675
▁acidophilus	-12.1675
▁acidosis	-12.1675
▁acidotic	-12.1675
▁acids	-12.1675
▁acidulant	-12.1675
▁acidulate	-12.1675
▁acidulated	-12.1675
▁acidulates	-12.1675
▁acidulating	-12.1675
▁acidulent	-12.1675
▁acidulous	-12.1675
▁aciduria	-12.1675
▁acidurias	-12.1675
▁acidy	-12.1675
▁acie	-12.1675
▁acierate	-12.1675
▁acima	-12.1675
▁acinaciform	-12.1675
▁acinar	-12.1675
▁acing	-12.1675
▁acini	-12.1675
▁aciniform	-12.1675
▁acinonyx	-12.1675
▁acinos	-12.1675
▁acinus	-12.1675
▁acipenser	-12.1675
▁acipenseridae	-12.1675
▁acis	-12.1675
▁ackee	-12.1675
▁ackees	-12.1675
▁acker	-12.1675
▁ackerley	-12.1675
▁ackerly	-12.1675
▁ackerman	-12.1675
▁ackermanville	-12.1675
▁ackers	-12.1675
▁ackler	-12.1675
▁ackley	-12.1675
▁acknowledge	-12.1675
▁acknowledgeable	-12.1675
▁acknowledged	-12.1675
▁acknowledgement	-12.1675
▁acknowledgements	-12.1675
▁acknowledges	-12.1675
▁acknowledging	-12.1675
▁acknowledgment	-12.1675
▁acknowledgments	-12.1675
▁ackworth	-12.1675
▁acmaesthesia	-12.1675
▁acme	-12.1675
▁acmes	-12.1675
▁acne	-12.1675
▁acned	-12.1675
▁acneiform	-12.1675
▁acnidosporidia	-12.1675
▁acnode	-12.1675
▁acocanthera	-12.1675
▁acold	-12.1675
▁acolyte	-12.1675
▁acolytes	-12.1675
▁aconcagua	-12.1675
▁aconite	-12.1675
▁aconites	-12.1675
▁aconitine	-12.1675
▁aconitum	-12.1675
▁acoraceae	-12.1675
▁acorea	-12.1675
▁acorn	-12.1675
▁acorns	-12.1675
▁acorus	-12.1675
▁acosmism	-12.1675
▁acotyledon	-12.1675
▁acouchi	-12.1675
▁acouchis	-12.1675
▁acoustic	-12.1675
▁acoustical	-12.1675
▁acoustically	-12.1675
▁acoustician	-12.1675
▁acousticians	-12.1675
▁acoustics	-12.1675
▁acquah	-12.1675
▁acquaint	-12.1675
▁acquaintance	-12.1675
▁acquaintances	-12.1675
▁acquaintanceship	-12.1675
▁acquainted	-12.1675
▁acquainting	-12.1675
▁acquaints	-12.1675
▁acquiesce	-12.1675
▁acquiesced	-12.1675
▁acquiescence	-12.1675
▁acquiescent	-12.1675
▁acquiescently	-12.1675
▁acquiesces	-12.1675
▁acquiescing	-12.1675
▁acquirable	-12.1675
▁acquire	-12.1675
▁acquired	-12.1675
▁acquiree	-12.1675
▁acquirees	-12.1675
▁acquirement	-12.1675
▁acquirer	-12.1675
▁acquirers	-12.1675
▁acquires	-12.1675
▁acquiring	-12.1675
▁acquisition	-12.1675
▁acquisitions	-12.1675
▁acquisitive	-12.1675
▁acquisitively	-12.1675
▁acquisitiveness	-12.1675
▁acquit	-12.1675
▁acquits	-12.1675
▁acquittal	-12.1675
▁acquittals	-12.1675
▁acquittance	-12.1675
▁acquittances	-12.1675
▁acquitted	-12.1675
▁acquitting	-12.1675
▁acra	-12.1675
▁acrasia	-12.1675
▁acrasiomycetes	-12.1675
▁acratic	-12.1675
▁acre	-12.1675
▁acreage	-12.1675
▁acreages	-12.1675
▁acred	-12.1675
▁acres	-12.1675
▁acrid	-12.1675
▁acrider	-12.1675
▁acridest	-12.1675
▁acrididae	-12.1675
▁acridine	-12.1675
▁acridity	-12.1675
▁acridly	-12.1675
▁acridness	-12.1675
▁acridotheres	-12.1675
▁acriflavine	-12.1675
▁acrilan	-12.1675
▁acrimonious	-12.1675
▁acrimoniously	-12.1675
▁acrimoniousness	-12.1675
▁acrimony	-12.1675
▁acris	-12.1675
▁acritical	-12.1675
▁acroaesthesia	-12.1675
▁acroanaesthesia	-12.1675
▁acroanesthesia	-12.1675
▁acrobat	-12.1675
▁acrobates	-12.1675
▁acrobatic	-12.1675
▁acrobatically	-12.1675
▁acrobatics	-12.1675
▁acrobats	-12.1675
▁acrocarp	-12.1675
▁acrocarpous	-12.1675
▁acrocarpus	-12.1675
▁acrocentric	-12.1675
▁acrocephalus	-12.1675
▁acroclinium	-12.1675
▁acrocomia	-12.1675
▁acrocyanosis	-12.1675
▁acrodont	-12.1675
▁acrodrome	-12.1675
▁acrogen	-12.1675
▁acrogenic	-12.1675
▁acrolect	-12.1675
▁acrolects	-12.1675
▁acrolein	-12.1675
▁acrolith	-12.1675
▁acromegalic	-12.1675
▁acromegalics	-12.1675
▁acromegalies	-12.1675
▁acromegaly	-12.1675
▁acromicria	-12.1675
▁acromion	-12.1675
▁acromphalus	-12.1675
▁acromyotonia	-12.1675
▁acronym	-12.1675
▁acronymic	-12.1675
▁acronymous	-12.1675
▁acronyms	-12.1675
▁acropetal	-12.1675
▁acrophobia	-12.1675
▁acrophobic	-12.1675
▁acrophony	-12.1675
▁acropolis	-12.1675
▁acropolises	-12.1675
▁acropora	-12.1675
▁acroscopic	-12.1675
▁acrosome	-12.1675
▁acrospire	-12.1675
▁across	-12.1675
▁acrostic	-12.1675
▁acrostichum	-12.1675
▁acrostics	-12.1675
▁acroter	-12.1675
▁acroterion	-12.1675
▁acrylamide	-12.1675
▁acrylate	-12.1675
▁acrylates	-12.1675
▁acrylic	-12.1675
▁acrylics	-12.1675
▁acrylonitrile	-12.1675
▁acrylyl	-12.1675
▁act	-12.1675
▁actable	-12.1675
▁actaea	-12.1675
▁actant	-12.1675
▁actants	-12.1675
▁acted	-12.1675
▁actest	-12.1675
▁actias	-12.1675
▁actifed	-12.1675
▁actin	-12.1675
▁actinal	-12.1675
▁acting	-12.1675
▁actinia	-12.1675
▁actinian	-12.1675
▁actinians	-12.1675
▁actiniaria	-12.1675
▁actinic	-12.1675
▁actinide	-12.1675
▁actinides	-12.1675
▁actinidia	-12.1675
▁actinidiaceae	-12.1675
▁actiniform	-12.1675
▁actiniopteris	-12.1675
▁actinism	-12.1675
▁actinisms	-12.1675
▁actinium	-12.1675
▁actinochemistry	-12.1675
▁actinoid	-12.1675
▁actinolite	-12.1675
▁actinology	-12.1675
▁actinomeris	-12.1675
▁actinometer	-12.1675
▁actinometric	-12.1675
▁actinometry	-12.1675
▁actinomorphic	-12.1675
▁actinomyces	-12.1675
▁actinomycetaceae	-12.1675
▁actinomycetal	-12.1675
▁actinomycetales	-12.1675
▁actinomycete	-12.1675
▁actinomycin	-12.1675
▁actinomycins	-12.1675
▁actinomycosis	-12.1675
▁actinomycotic	-12.1675
▁actinomyxidia	-12.1675
▁actinomyxidian	-12.1675
▁actinon	-12.1675
▁actinopod	-12.1675
▁actinopoda	-12.1675
▁actinotherapy	-12.1675
▁actinouranium	-12.1675
▁actinozoa	-12.1675
▁actinozoan	-12.1675
▁actins	-12.1675
▁action	-12.1675
▁actionable	-12.1675
▁actionably	-12.1675
▁actioned	-12.1675
▁actioner	-12.1675
▁actioners	-12.1675
▁actioning	-12.1675
▁actionless	-12.1675
▁actions	-12.1675
▁actitis	-12.1675
▁actium	-12.1675
▁activate	-12.1675
▁activated	-12.1675
▁activates	-12.1675
▁activating	-12.1675
▁activation	-12.1675
▁activations	-12.1675
▁activator	-12.1675
▁activators	-12.1675
▁active	-12.1675
▁actively	-12.1675
▁activeness	-12.1675
▁actives	-12.1675
▁activex	-12.1675
▁activism	-12.1675
▁activist	-12.1675
▁activistic	-12.1675
▁activists	-12.1675
▁activities	-12.1675
▁activity	-12.1675
▁actomyosin	-12.1675
▁actor	-12.1675
▁actorish	-12.1675
▁actorly	-12.1675
▁actors	-12.1675
▁actress	-12.1675
▁actresses	-12.1675
▁actressy	-12.1675
▁acts	-12.1675
▁actual	-12.1675
▁actualise	-12.1675
▁actualities	-12.1675
▁actuality	-12.1675
▁actualizations	-12.1675
▁actualize	-12.1675
▁actualized	-12.1675
▁actualizes	-12.1675
▁actualizing	-12.1675
▁actually	-12.1675
▁actuarial	-12.1675
▁actuarially	-12.1675
▁actuaries	-12.1675
▁actuarily	-12.1675
▁actuary	-12.1675
▁actuate	-12.1675
▁actuated	-12.1675
▁actuates	-12.1675
▁actuating	-12.1675
▁actuation	-12.1675
▁actuator	-12.1675
▁actuators	-12.1675
▁acuaesthesia	-12.1675
▁acuate	-12.1675
▁acuity	-12.1675
▁aculea	-12.1675
▁aculeate	-12.1675
▁aculeates	-12.1675
▁aculeus	-12.1675
▁acumen	-12.1675
▁acuminate	-12.1675
▁acupoint	-12.1675
▁acupoints	-12.1675
▁acupressure	-12.1675
▁acupuncture	-12.1675
▁acupuncturist	-12.1675
▁acupuncturists	-12.1675
▁acus	-12.1675
▁acushla	-12.1675
▁acushlas	-12.1675
▁acushnet	-12.1675
▁acutance	-12.1675
▁acute	-12.1675
▁acutely	-12.1675
▁acuteness	-12.1675
▁acuter	-12.1675
▁acutes	-12.1675
▁acutest	-12.1675
▁acworth	-12.1675
▁acyclic	-12.1675
▁acyclovir	-12.1675
▁acyl	-12.1675
▁acylate	-12.1675
▁acylated	-12.1675
▁acylates	-12.1675
▁acylating	-12.1675
▁acylation	-12.1675
▁acyls	-12.1675
▁ad	-12.1675
▁adabel	-12.1675
▁adabelle	-12.1675
▁adachi	-12.1675
▁adactylia	-12.1675
▁adactylous	-12.1675
▁adad	-12.1675
▁adage	-12.1675
▁adages	-12.1675
▁adagietto	-12.1675
▁adagio	-12.1675
▁adagios	-12.1675
▁adah	-12.1675
▁adaha	-12.1675
▁adai	-12.1675
▁adaiha	-12.1675
▁adair	-12.1675
▁adairsville	-12.1675
▁adairville	-12.1675
▁adal	-12.1675
▁adala	-12.1675
▁adalai	-12.1675
▁adalard	-12.1675
▁adalbert	-12.1675
▁adalheid	-12.1675
▁adali	-12.1675
▁adalia	-12.1675
▁adaliah	-12.1675
▁adalie	-12.1675
▁adaline	-12.1675
▁adall	-12.1675
▁adallard	-12.1675
▁adam	-12.1675
▁adama	-12.1675
▁adamance	-12.1675
▁adamances	-12.1675
▁adamancies	-12.1675
▁adamancy	-12.1675
▁adamant	-12.1675
▁adamantine	-12.1675
▁adamantly	-12.1675
▁adamec	-12.1675
▁adamek	-12.1675
▁adamic	-12.1675
▁adamik	-12.1675
▁adamina	-12.1675
▁adaminah	-12.1675
▁adamis	-12.1675
▁adamite	-12.1675
▁adamitical	-12.1675
▁adamitism	-12.1675
▁adamo	-12.1675
▁adamok	-12.1675
▁adams	-12.1675
▁adamsbasin	-12.1675
▁adamsburg	-12.1675
▁adamsen	-12.1675
▁adamsite	-12.1675
▁adamski	-12.1675
▁adamson	-12.1675
▁adamstown	-12.1675
▁adamsun	-12.1675
▁adamsville	-12.1675
▁adana	-12.1675
▁adansonia	-12.1675
▁adao	-12.1675
▁adapa	-12.1675
▁adapid	-12.1675
▁adapt	-12.1675
▁adaptability	-12.1675
▁adaptable	-12.1675
▁adaptably	-12.1675
▁adaptation	-12.1675
▁adaptational	-12.1675
▁adaptations	-12.1675
▁adapted	-12.1675
▁adapter	-12.1675
▁adapters	-12.1675
▁adapting	-12.1675
▁adaption	-12.1675
▁adaptions	-12.1675
▁adaptive	-12.1675
▁adaptively	-12.1675
▁adaptiveness	-12.1675
▁adaptivenesses	-12.1675
▁adaptivities	-12.1675
▁adaptivity	-12.1675
▁adaptogen	-12.1675
▁adaptor	-12.1675
▁adaptors	-12.1675
▁adapts	-12.1675
▁adar	-12.1675
▁adara	-12.1675
▁adars	-12.1675
▁adaurd	-12.1675
▁adaxial	-12.1675
▁adaxially	-12.1675
▁aday	-12.1675
▁add	-12.1675
▁adda	-12.1675
▁addable	-12.1675
▁addam	-12.1675
▁addas	-12.1675
▁addax	-12.1675
▁addaxes	-12.1675
▁added	-12.1675
▁addend	-12.1675
▁addenda	-12.1675
▁addends	-12.1675
▁addendum	-12.1675
▁adder	-12.1675
▁adders	-12.1675
▁adderss	-12.1675
▁addi	-12.1675
▁addia	-12.1675
▁addict	-12.1675
▁addicted	-12.1675
▁addicting	-12.1675
▁addiction	-12.1675
▁addictions	-12.1675
▁addictive	-12.1675
▁addictiveness	-12.1675
▁addicts	-12.1675
▁addiego	-12.1675
▁addiel	-12.1675
▁addieville	-12.1675
▁adding	-12.1675
▁addington	-12.1675
▁addis	-12.1675
▁addisonian	-12.1675
▁additament	-12.1675
▁addition	-12.1675
▁additional	-12.1675
▁additionally	-12.1675
▁additions	-12.1675
▁additive	-12.1675
▁additively	-12.1675
▁additives	-12.1675
▁additivities	-12.1675
▁additivity	-12.1675
▁additory	-12.1675
▁addle	-12.1675
▁addlebrained	-12.1675
▁addled	-12.1675
▁addlepated	-12.1675
▁addles	-12.1675
▁addling	-12.1675
▁addorsed	-12.1675
▁address	-12.1675
▁addressable	-12.1675
▁addressed	-12.1675
▁addressee	-12.1675
▁addressees	-12.1675
▁addresser	-12.1675
▁addresses	-12.1675
▁addressing	-12.1675
▁addressograph	-12.1675
▁adds	-12.1675
▁adduce	-12.1675
▁adduceable	-12.1675
▁adduced	-12.1675
▁adducent	-12.1675
▁adducer	-12.1675
▁adducers	-12.1675
▁adduces	-12.1675
▁adducible	-12.1675
▁adducing	-12.1675
▁adduct	-12.1675
▁adducted	-12.1675
▁adducting	-12.1675
▁adduction	-12.1675
▁adductor	-12.1675
▁adductors	-12.1675
▁adducts	-12.1675
▁addy	-12.1675
▁addyston	-12.1675
▁ade	-12.1675
▁adebayo	-12.1675
▁adel	-12.1675
▁adelaida	-12.1675
▁adelaide	-12.1675
▁adelaja	-12.1675
▁adelanto	-12.1675
▁adelbert	-12.1675
▁adelges	-12.1675
▁adelgid	-12.1675
▁adelgidae	-12.1675
▁adelheid	-12.1675
▁adelia	-12.1675
▁adelice	-12.1675
▁adelie	-12.1675
▁adelina	-12.1675
▁adelind	-12.1675
▁adell	-12.1675
▁adella	-12.1675
▁adelle	-12.1675
▁adelphi	-12.1675
▁adelphia	-12.1675
▁adelpho	-12.1675
▁adelric	-12.1675
▁ademption	-12.1675
▁aden	-12.1675
▁adena	-12.1675
▁adenanthera	-12.1675
▁adenauer	-12.1675
▁adenectomy	-12.1675
▁adenine	-12.1675
▁adenitis	-12.1675
▁adenium	-12.1675
▁adenocarcinoma	-12.1675
▁adenocarcinomatous	-12.1675
▁adenoid	-12.1675
▁adenoidal	-12.1675
▁adenoidectomy	-12.1675
▁adenoids	-12.1675
▁adenoma	-12.1675
▁adenomas	-12.1675
▁adenomata	-12.1675
▁adenomegaly	-12.1675
▁adenopathy	-12.1675
▁adenosine	-12.1675
▁adenota	-12.1675
▁adenovirus	-12.1675
▁adenylate	-12.1675
▁adept	-12.1675
▁adepter	-12.1675
▁adeptest	-12.1675
▁adeptly	-12.1675
▁adeptness	-12.1675
▁adepts	-12.1675
▁adequacy	-12.1675
▁adequate	-12.1675
▁adequately	-12.1675
▁adequateness	-12.1675
▁ader	-12.1675
▁adermin	-12.1675
▁adesite	-12.1675
▁adessive	-12.1675
▁adest	-12.1675
▁adey	-12.1675
▁adger	-12.1675
▁adham	-12.1675
▁adhamh	-12.1675
▁adhere	-12.1675
▁adhered	-12.1675
▁adherence	-12.1675
▁adherent	-12.1675
▁adherents	-12.1675
▁adherer	-12.1675
▁adherers	-12.1675
▁adheres	-12.1675
▁adhering	-12.1675
▁adhern	-12.1675
▁adhesion	-12.1675
▁adhesions	-12.1675
▁adhesive	-12.1675
▁adhesively	-12.1675
▁adhesiveness	-12.1675
▁adhesives	-12.1675
▁adhibit	-12.1675
▁adhibited	-12.1675
▁adhibits	-12.1675
▁adhocracy	-12.1675
▁adi	-12.1675
▁adiabatic	-12.1675
▁adiabatically	-12.1675
▁adiana	-12.1675
▁adiantaceae	-12.1675
▁adiantum	-12.1675
▁adiaphorism	-12.1675
▁adiaphorous	-12.1675
▁adiathermancy	-12.1675
▁adiel	-12.1675
▁adiell	-12.1675
▁adience	-12.1675
▁adient	-12.1675
▁adieu	-12.1675
▁adieus	-12.1675
▁adieux	-12.1675
▁adige	-12.1675
▁adigranth	-12.1675
▁adigun	-12.1675
▁adila	-12.1675
▁adim	-12.1675
▁adin	-12.1675
▁adina	-12.1675
▁adine	-12.1675
▁adios	-12.1675
▁adioses	-12.1675
▁adipate	-12.1675
▁adipates	-12.1675
▁adipocere	-12.1675
▁adipocyte	-12.1675
▁adipose	-12.1675
▁adiposities	-12.1675
▁adiposity	-12.1675
▁adirondacks	-12.1675
▁adis	-12.1675
▁adit	-12.1675
▁aditi	-12.1675
▁adits	-12.1675
▁aditya	-12.1675
▁adjacency	-12.1675
▁adjacent	-12.1675
▁adjacently	-12.1675
▁adjectival	-12.1675
▁adjectivally	-12.1675
▁adjective	-12.1675
▁adjectively	-12.1675
▁adjectives	-12.1675
▁adjigo	-12.1675
▁adjigos	-12.1675
▁adjiko	-12.1675
▁adjikos	-12.1675
▁adjoin	-12.1675
▁adjoined	-12.1675
▁adjoining	-12.1675
▁adjoins	-12.1675
▁adjoint	-12.1675
▁adjoints	-12.1675
▁adjourn	-12.1675
▁adjourned	-12.1675
▁adjourning	-12.1675
▁adjournment	-12.1675
▁adjournments	-12.1675
▁adjourns	-12.1675
▁adjudge	-12.1675
▁adjudged	-12.1675
▁adjudges	-12.1675
▁adjudging	-12.1675
▁adjudgment	-12.1675
▁adjudgments	-12.1675
▁adjudicate	-12.1675
▁adjudicated	-12.1675
▁adjudicates	-12.1675
▁adjudicating	-12.1675
▁adjudication	-12.1675
▁adjudications	-12.1675
▁adjudicative	-12.1675
▁adjudicator	-12.1675
▁adjudicators	-12.1675
▁adjudicatory	-12.1675
▁adjunct	-12.1675
▁adjunction	-12.1675
▁adjunctive	-12.1675
▁adjuncts	-12.1675
▁adjuntas	-12.1675
▁adjuration	-12.1675
▁adjurations	-12.1675
▁adjuratory	-12.1675
▁adjure	-12.1675
▁adjured	-12.1675
▁adjures	-12.1675
▁adjuring	-12.1675
▁adjust	-12.1675
▁adjustable	-12.1675
▁adjusted	-12.1675
▁adjuster	-12.1675
▁adjusters	-12.1675
▁adjusting	-12.1675
▁adjustive	-12.1675
▁adjustment	-12.1675
▁adjustments	-12.1675
▁adjustor	-12.1675
▁adjusts	-12.1675
▁adjutancies	-12.1675
▁adjutancy	-12.1675
▁adjutant	-12.1675
▁adjutants	-12.1675
▁adjuvant	-12.1675
▁adjuvants	-12.1675
▁adlai	-12.1675
▁adland	-12.1675
▁adlar	-12.1675
▁adlare	-12.1675
▁adlay	-12.1675
▁adlee	-12.1675
▁adlei	-12.1675
▁adlerian	-12.1675
▁adley	-12.1675
▁adlumia	-12.1675
▁adman	-12.1675
▁admass	-12.1675
▁admeasure	-12.1675
▁admeasurement	-12.1675
▁admeasurements	-12.1675
▁admen	-12.1675
▁admetus	-12.1675
▁admin	-12.1675
▁adminicle	-12.1675
▁administer	-12.1675
▁administered	-12.1675
▁administering	-12.1675
▁administers	-12.1675
▁administrable	-12.1675
▁administrant	-12.1675
▁administrants	-12.1675
▁administrate	-12.1675
▁administrated	-12.1675
▁administrates	-12.1675
▁administrating	-12.1675
▁administration	-12.1675
▁administrations	-12.1675
▁administrative	-12.1675
▁administratively	-12.1675
▁administrator	-12.1675
▁administrators	-12.1675
▁administrivia	-12.1675
▁admirabilities	-12.1675
▁admirability	-12.1675
▁admirable	-12.1675
▁admirableness	-12.1675
▁admirablenesses	-12.1675
▁admirably	-12.1675
▁admiral	-12.1675
▁admirals	-12.1675
▁admiralty	-12.1675
▁admiration	-12.1675
▁admire	-12.1675
▁admired	-12.1675
▁admirer	-12.1675
▁admirers	-12.1675
▁admires	-12.1675
▁admiring	-12.1675
▁admiringly	-12.1675
▁admissibility	-12.1675
▁admissible	-12.1675
▁admissibleness	-12.1675
▁admissiblenesses	-12.1675
▁admissibly	-12.1675
▁admission	-12.1675
▁admissions	-12.1675
▁admissive	-12.1675
▁admit	-12.1675
▁admits	-12.1675
▁admittable	-12.1675
▁admittance	-12.1675
▁admittances	-12.1675
▁admitted	-12.1675
▁admittedly	-12.1675
▁admitting	-12.1675
▁admix	-12.1675
▁admixed	-12.1675
▁admixes	-12.1675
▁admixing	-12.1675
▁admixture	-12.1675
▁admixtures	-12.1675
▁admonish	-12.1675
▁admonished	-12.1675
▁admonisher	-12.1675
▁admonishers	-12.1675
▁admonishes	-12.1675
▁admonishing	-12.1675
▁admonishingly	-12.1675
▁admonishment	-12.1675
▁admonishments	-12.1675
▁admonition	-12.1675
▁admonitions	-12.1675
▁admonitory	-12.1675
▁adna	-12.1675
▁adnah	-12.1675
▁adnate	-12.1675
▁adne	-12.1675
▁adnexa	-12.1675
▁adnexal	-12.1675
▁adnominal	-12.1675
▁adnopoz	-12.1675
▁adnoun	-12.1675
▁ado	-12.1675
▁adobe	-12.1675
▁adobes	-12.1675
▁adobo	-12.1675
▁adobos	-12.1675
▁adolesce	-12.1675
▁adolescence	-12.1675
▁adolescences	-12.1675
▁adolescent	-12.1675
▁adolescents	-12.1675
▁adolphe	-12.1675
▁adolpho	-12.1675
▁adolphus	-12.1675
▁adon	-12.1675
▁adona	-12.1675
▁adonai	-12.1675
▁adonia	-12.1675
▁adonic	-12.1675
▁adonis	-12.1675
▁adonize	-12.1675
▁adopt	-12.1675
▁adoptable	-12.1675
▁adopted	-12.1675
▁adoptee	-12.1675
▁adoptees	-12.1675
▁adopter	-12.1675
▁adopters	-12.1675
▁adopting	-12.1675
▁adoption	-12.1675
▁adoptions	-12.1675
▁adoptive	-12.1675
▁adoptively	-12.1675
▁adopts	-12.1675
▁adora	-12.1675
▁adorability	-12.1675
▁adorable	-12.1675
▁adorableness	-12.1675
▁adorably	-12.1675
▁adoral	-12.1675
▁adorally	-12.1675
▁adoration	-12.1675
▁adore	-12.1675
▁adored	-12.1675
▁adoree	-12.1675
▁adorer	-12.1675
▁adorers	-12.1675
▁adores	-12.1675
▁adoring	-12.1675
▁adoringly	-12.1675
▁adorl	-12.1675
▁adorn	-12.1675
▁adorne	-12.1675
▁adorned	-12.1675
▁adorner	-12.1675
▁adorners	-12.1675
▁adorning	-12.1675
▁adornment	-12.1675
▁adornments	-12.1675
▁adorns	-12.1675
▁adowa	-12.1675
▁adown	-12.1675
▁adoxography	-12.1675
▁adpressed	-12.1675
▁adrastus	-12.1675
▁adrea	-12.1675
▁adrell	-12.1675
▁adrenal	-12.1675
▁adrenalectomy	-12.1675
▁adrenalin	-12.1675
▁adrenaline	-12.1675
▁adrenals	-12.1675
▁adrenarche	-12.1675
▁adrenergic	-12.1675
▁adrenocortical	-12.1675
▁adrenocorticotropic	-12.1675
▁adrenosterone	-12.1675
▁adret	-12.1675
▁adrets	-12.1675
▁adria	-12.1675
▁adriaens	-12.1675
▁adrial	-12.1675
▁adrian	-12.1675
▁adriane	-12.1675
▁adrianna	-12.1675
▁adrianne	-12.1675
▁adriano	-12.1675
▁adrianople	-12.1675
▁adriatic	-12.1675
▁adriel	-12.1675
▁adriell	-12.1675
▁adrien	-12.1675
▁adriena	-12.1675
▁adriene	-12.1675
▁adrift	-12.1675
▁adroit	-12.1675
▁adroiter	-12.1675
▁adroitest	-12.1675
▁adroitly	-12.1675
▁adroitness	-12.1675
▁adroop	-12.1675
▁ads	-12.1675
▁adscititious	-12.1675
▁adscript	-12.1675
▁adscription	-12.1675
▁adsorb	-12.1675
▁adsorbable	-12.1675
▁adsorbate	-12.1675
▁adsorbed	-12.1675
▁adsorbent	-12.1675
▁adsorbents	-12.1675
▁adsorbing	-12.1675
▁adsorbs	-12.1675
▁adsorption	-12.1675
▁adsorptions	-12.1675
▁adsorptive	-12.1675
▁adstrata	-12.1675
▁adstrate	-12.1675
▁adstratum	-12.1675
▁aduki	-12.1675
▁adukis	-12.1675
▁adularia	-12.1675
▁adulate	-12.1675
▁adulated	-12.1675
▁adulates	-12.1675
▁adulating	-12.1675
▁adulation	-12.1675
▁adulator	-12.1675
▁adulators	-12.1675
▁adulatory	-12.1675
▁adullamite	-12.1675
▁adult	-12.1675
▁adulterant	-12.1675
▁adulterants	-12.1675
▁adulterate	-12.1675
▁adulterated	-12.1675
▁adulterates	-12.1675
▁adulterating	-12.1675
▁adulteration	-12.1675
▁adulterations	-12.1675
▁adulterator	-12.1675
▁adulterators	-12.1675
▁adulterer	-12.1675
▁adulterers	-12.1675
▁adulteress	-12.1675
▁adulteresses	-12.1675
▁adulteries	-12.1675
▁adulterine	-12.1675
▁adulterize	-12.1675
▁adulterized	-12.1675
▁adulterizes	-12.1675
▁adulterizing	-12.1675
▁adulterous	-12.1675
▁adulterously	-12.1675
▁adultery	-12.1675
▁adulthood	-12.1675
▁adultly	-12.1675
▁adults	-12.1675
▁adumbral	-12.1675
▁adumbrate	-12.1675
▁adumbrated	-12.1675
▁adumbrates	-12.1675
▁adumbrating	-12.1675
▁adumbration	-12.1675
▁adumbrative	-12.1675
▁adur	-12.1675
▁adust	-12.1675
▁aduwa	-12.1675
▁advance	-12.1675
▁advanced	-12.1675
▁advancement	-12.1675
▁advancements	-12.1675
▁advancer	-12.1675
▁advancers	-12.1675
▁advances	-12.1675
▁advancing	-12.1675
▁advantage	-12.1675
▁advantaged	-12.1675
▁advantageous	-12.1675
▁advantageously	-12.1675
▁advantages	-12.1675
▁advantaging	-12.1675
▁advect	-12.1675
▁advected	-12.1675
▁advecting	-12.1675
▁advection	-12.1675
▁advections	-12.1675
▁advective	-12.1675
▁advects	-12.1675
▁advenae	-12.1675
▁advene	-12.1675
▁advent	-12.1675
▁adventism	-12.1675
▁adventist	-12.1675
▁adventitia	-12.1675
▁adventitial	-12.1675
▁adventitious	-12.1675
▁adventitiously	-12.1675
▁adventive	-12.1675
▁advents	-12.1675
▁adventure	-12.1675
▁adventured	-12.1675
▁adventurer	-12.1675
▁adventurers	-12.1675
▁adventures	-12.1675
▁adventuresome	-12.1675
▁adventuress	-12.1675
▁adventuresses	-12.1675
▁adventuring	-12.1675
▁adventurism	-12.1675
▁adventurisms	-12.1675
▁adventurist	-12.1675
▁adventuristic	-12.1675
▁adventurists	-12.1675
▁adventurous	-12.1675
▁adventurously	-12.1675
▁adventurousness	-12.1675
▁adverb	-12.1675
▁adverbial	-12.1675
▁adverbialize	-12.1675
▁adverbialized	-12.1675
▁adverbializes	-12.1675
▁adverbializing	-12.1675
▁adverbially	-12.1675
▁adverbials	-12.1675
▁adverbs	-12.1675
▁adversaria	-12.1675
▁adversarial	-12.1675
▁adversarially	-12.1675
▁adversaries	-12.1675
▁adversary	-12.1675
▁adversative	-12.1675
▁adverse	-12.1675
▁adversely	-12.1675
▁adverseness	-12.1675
▁adverser	-12.1675
▁adversest	-12.1675
▁adversities	-12.1675
▁adversity	-12.1675
▁advert	-12.1675
▁adverted	-12.1675
▁advertence	-12.1675
▁advertent	-12.1675
▁adverting	-12.1675
▁advertisable	-12.1675
▁advertise	-12.1675
▁advertised	-12.1675
▁advertisement	-12.1675
▁advertisements	-12.1675
▁advertiser	-12.1675
▁advertisers	-12.1675
▁advertises	-12.1675
▁advertising	-12.1675
▁advertizable	-12.1675
▁advertorial	-12.1675
▁advertorials	-12.1675
▁adverts	-12.1675
▁advice	-12.1675
▁advices	-12.1675
▁advisability	-12.1675
▁advisable	-12.1675
▁advisably	-12.1675
▁advise	-12.1675
▁advised	-12.1675
▁advisedly	-12.1675
▁advisee	-12.1675
▁advisement	-12.1675
▁adviser	-12.1675
▁advisers	-12.1675
▁advises	-12.1675
▁advising	-12.1675
▁advisor	-12.1675
▁advisories	-12.1675
▁advisors	-12.1675
▁advisory	-12.1675
▁advocaat	-12.1675
▁advocaats	-12.1675
▁advocacy	-12.1675
▁advocate	-12.1675
▁advocated	-12.1675
▁advocates	-12.1675
▁advocating	-12.1675
▁advocation	-12.1675
▁advocations	-12.1675
▁advocator	-12.1675
▁advocators	-12.1675
▁advowson	-12.1675
▁advowsons	-12.1675
▁adynamia	-12.1675
▁adynamic	-12.1675
▁adyta	-12.1675
▁adytum	-12.1675
▁adz	-12.1675
▁adze	-12.1675
▁adzed	-12.1675
▁adzes	-12.1675
▁adzhar	-12.1675
▁adzing	-12.1675
▁adzuki	-12.1675
▁adzukis	-12.1675
▁aec	-12.1675
▁aecial	-12.1675
▁aeciospore	-12.1675
▁aecium	-12.1675
▁aedes	-12.1675
▁aedicule	-12.1675
▁aedile	-12.1675
▁aediles	-12.1675
▁aedility	-12.1675
▁aegaeon	-12.1675
▁aegean	-12.1675
▁aeger	-12.1675
▁aegeus	-12.1675
▁aegiceras	-12.1675
▁aegilops	-12.1675
▁aegina	-12.1675
▁aegir	-12.1675
▁aegis	-12.1675
▁aegises	-12.1675
▁aegisthus	-12.1675
▁aeglogue	-12.1675
▁aegophony	-12.1675
▁aegospotami	-12.1675
▁aegritude	-12.1675
▁aegrotat	-12.1675
▁aegrotats	-12.1675
▁aegypiidae	-12.1675
▁aegypius	-12.1675
▁aegyptopithecus	-12.1675
▁aegyptus	-12.1675
▁aekerly	-12.1675
▁aelber	-12.1675
▁aemule	-12.1675
▁aemuled	-12.1675
▁aemules	-12.1675
▁aemuling	-12.1675
▁aenea	-12.1675
▁aeneas	-12.1675
▁aeneid	-12.1675
▁aeneous	-12.1675
▁aeneus	-12.1675
▁aeniah	-12.1675
▁aenneea	-12.1675
▁aeolia	-12.1675
▁aeolian	-12.1675
▁aeolians	-12.1675
▁aeolic	-12.1675
▁aeolipiles	-12.1675
▁aeolis	-12.1675
▁aeolotropic	-12.1675
▁aeolus	-12.1675
▁aeon	-12.1675
▁aeonisms	-12.1675
▁aeonium	-12.1675
▁aeons	-12.1675
▁aepyceros	-12.1675
▁aepyornidae	-12.1675
▁aepyorniformes	-12.1675
▁aepyornis	-12.1675
▁aerate	-12.1675
▁aerated	-12.1675
▁aerates	-12.1675
▁aerating	-12.1675
▁aeration	-12.1675
▁aerations	-12.1675
▁aerator	-12.1675
▁aerators	-12.1675
▁aerial	-12.1675
▁aerialist	-12.1675
▁aerialists	-12.1675
▁aeriality	-12.1675
▁aerially	-12.1675
▁aerials	-12.1675
▁aeric	-12.1675
▁aerical	-12.1675
▁aerides	-12.1675
▁aerie	-12.1675
▁aeriel	-12.1675
▁aeriela	-12.1675
▁aeriell	-12.1675
▁aerier	-12.1675
▁aeries	-12.1675
▁aeriest	-12.1675
▁aeriferous	-12.1675
▁aerification	-12.1675
▁aeriform	-12.1675
▁aerify	-12.1675
▁aero	-12.1675
▁aerobacter	-12.1675
▁aeroballistics	-12.1675
▁aerobatic	-12.1675
▁aerobatics	-12.1675
▁aerobe	-12.1675
▁aerobes	-12.1675
▁aerobic	-12.1675
▁aerobically	-12.1675
▁aerobics	-12.1675
▁aerobiology	-12.1675
▁aerobiosis	-12.1675
▁aerobiotic	-12.1675
▁aerobrake	-12.1675
▁aerobraking	-12.1675
▁aerodonetics	-12.1675
▁aerodontalgia	-12.1675
▁aerodontia	-12.1675
▁aerodrome	-12.1675
▁aerodromes	-12.1675
▁aerodynamic	-12.1675
▁aerodynamical	-12.1675
▁aerodynamically	-12.1675
▁aerodynamicist	-12.1675
▁aerodynamicists	-12.1675
▁aerodynamics	-12.1675
▁aerodyne	-12.1675
▁aeroembolism	-12.1675
▁aerofoil	-12.1675
▁aerofoils	-12.1675
▁aerogel	-12.1675
▁aerogels	-12.1675
▁aerogenesis	-12.1675
▁aerogram	-12.1675
▁aerogramme	-12.1675
▁aerogrammes	-12.1675
▁aerograms	-12.1675
▁aerograph	-12.1675
▁aerographer	-12.1675
▁aerographic	-12.1675
▁aerographies	-12.1675
▁aerolite	-12.1675
▁aerolites	-12.1675
▁aerolitic	-12.1675
▁aerologic	-12.1675
▁aerological	-12.1675
▁aerologies	-12.1675
▁aerologist	-12.1675
▁aerology	-12.1675
▁aeromancy	-12.1675
▁aeromarine	-12.1675
▁aeromechanic	-12.1675
▁aeromechanics	-12.1675
▁aeromedical	-12.1675
▁aeromedicine	-12.1675
▁aerometeorograph	-12.1675
▁aerometer	-12.1675
▁aerometric	-12.1675
▁aerometry	-12.1675
▁aeronaut	-12.1675
▁aeronautic	-12.1675
▁aeronautical	-12.1675
▁aeronautics	-12.1675
▁aeronauts	-12.1675
▁aeroneurosis	-12.1675
▁aeronomy	-12.1675
▁aeropause	-12.1675
▁aeropauses	-12.1675
▁aerophagia	-12.1675
▁aerophagy	-12.1675
▁aerophilatelic	-12.1675
▁aerophilately	-12.1675
▁aerophile	-12.1675
▁aerophobia	-12.1675
▁aerophone	-12.1675
▁aerophyte	-12.1675
▁aeroplane	-12.1675
▁aeroplanes	-12.1675
▁aeroponic	-12.1675
▁aeroponics	-12.1675
▁aeros	-12.1675
▁aeroscope	-12.1675
▁aeroshell	-12.1675
▁aerosol	-12.1675
▁aerosolize	-12.1675
▁aerosolized	-12.1675
▁aerosols	-12.1675
▁aerospace	-12.1675
▁aerosphere	-12.1675
▁aerostat	-12.1675
▁aerostatic	-12.1675
▁aerostatics	-12.1675
▁aerostation	-12.1675
▁aerostats	-12.1675
▁aerotherapeutics	-12.1675
▁aerothermodynamics	-12.1675
▁aertex	-12.1675
▁aeruginous	-12.1675
▁aerugo	-12.1675
▁aerugos	-12.1675
▁aesc	-12.1675
▁aeschines	-12.1675
▁aeschylean	-12.1675
▁aeschylus	-12.1675
▁aeschynanthus	-12.1675
▁aeschynite	-12.1675
▁aesculapian	-12.1675
▁aesculapius	-12.1675
▁aesculetin	-12.1675
▁aesculin	-12.1675
▁aesculus	-12.1675
▁aesir	-12.1675
▁aesop	-12.1675
▁aesopian	-12.1675
▁aesopic	-12.1675
▁aestheses	-12.1675
▁aesthesiogen	-12.1675
▁aesthesiogenic	-12.1675
▁aesthesiogens	-12.1675
▁aesthesis	-12.1675
▁aesthete	-12.1675
▁aesthetes	-12.1675
▁aesthetic	-12.1675
▁aesthetical	-12.1675
▁aesthetically	-12.1675
▁aestheticism	-12.1675
▁aestheticize	-12.1675
▁aestheticized	-12.1675
▁aestheticizes	-12.1675
▁aestheticizing	-12.1675
▁aesthetics	-12.1675
▁aestival	-12.1675
▁aestivate	-12.1675
▁aestivator	-12.1675
▁aestive	-12.1675
▁aestuate	-12.1675
▁aestuous	-12.1675
▁aesture	-12.1675
▁aestus	-12.1675
▁aetheling	-12.1675
▁aether	-12.1675
▁aethered	-12.1675
▁aetheric	-12.1675
▁aethionema	-12.1675
▁aethiopian	-12.1675
▁aethusa	-12.1675
▁aetiogenic	-12.1675
▁aetiologies	-12.1675
▁aetiologue	-12.1675
▁aetiology	-12.1675
▁aetiophyllin	-12.1675
▁aetiotropic	-12.1675
▁aetiotropically	-12.1675
▁aetna	-12.1675
▁aetobatus	-12.1675
▁aetolia	-12.1675
▁aeviternal	-12.1675
▁af	-12.1675
▁afar	-12.1675
▁afara	-12.1675
▁afaras	-12.1675
▁afeard	-12.1675
▁afeared	-12.1675
▁afebrile	-12.1675
▁affability	-12.1675
▁affable	-12.1675
▁affabler	-12.1675
▁affablest	-12.1675
▁affably	-12.1675
▁affair	-12.1675
▁affaire	-12.1675
▁affaires	-12.1675
▁affairs	-12.1675
▁affect	-12.1675
▁affectation	-12.1675
▁affectations	-12.1675
▁affected	-12.1675
▁affectedly	-12.1675
▁affectedness	-12.1675
▁affecting	-12.1675
▁affectingly	-12.1675
▁affection	-12.1675
▁affectional	-12.1675
▁affectionate	-12.1675
▁affectionately	-12.1675
▁affectionateness	-12.1675
▁affectioned	-12.1675
▁affectioning	-12.1675
▁affections	-12.1675
▁affective	-12.1675
▁affectively	-12.1675
▁affectiveness	-12.1675
▁affectless	-12.1675
▁affectlessness	-12.1675
▁affectlessnesses	-12.1675
▁affects	-12.1675
▁affeer	-12.1675
▁affenpinscher	-12.1675
▁affer	-12.1675
▁affere	-12.1675
▁afferent	-12.1675
▁afferents	-12.1675
▁affettuoso	-12.1675
▁affghanistan	-12.1675
▁affiance	-12.1675
▁affianced	-12.1675
▁affiances	-12.1675
▁affiancing	-12.1675
▁affiant	-12.1675
▁affiants	-12.1675
▁affiche	-12.1675
▁affidavit	-12.1675
▁affidavits	-12.1675
▁affiliate	-12.1675
▁affiliated	-12.1675
▁affiliates	-12.1675
▁affiliating	-12.1675
▁affiliation	-12.1675
▁affiliations	-12.1675
▁affiliative	-12.1675
▁affinal	-12.1675
▁affine	-12.1675
▁affined	-12.1675
▁affines	-12.1675
▁affinities	-12.1675
▁affinitive	-12.1675
▁affinity	-12.1675
▁affirm	-12.1675
▁affirmable	-12.1675
▁affirmant	-12.1675
▁affirmants	-12.1675
▁affirmation	-12.1675
▁affirmations	-12.1675
▁affirmative	-12.1675
▁affirmatively	-12.1675
▁affirmativeness	-12.1675
▁affirmatives	-12.1675
▁affirmatory	-12.1675
▁affirmed	-12.1675
▁affirmer	-12.1675
▁affirmers	-12.1675
▁affirming	-12.1675
▁affirms	-12.1675
▁affix	-12.1675
▁affixal	-12.1675
▁affixation	-12.1675
▁affixations	-12.1675
▁affixed	-12.1675
▁affixes	-12.1675
▁affixing	-12.1675
▁afflatus	-12.1675
▁afflict	-12.1675
▁afflicted	-12.1675
▁afflicting	-12.1675
▁affliction	-12.1675
▁afflictions	-12.1675
▁afflictive	-12.1675
▁afflictively	-12.1675
▁afflicts	-12.1675
▁affluence	-12.1675
▁affluent	-12.1675
▁affluently	-12.1675
▁affluents	-12.1675
▁affluenza	-12.1675
▁afflux	-12.1675
▁affluxes	-12.1675
▁afforce	-12.1675
▁afforced	-12.1675
▁afforces	-12.1675
▁afforcing	-12.1675
▁afford	-12.1675
▁affordabilities	-12.1675
▁affordability	-12.1675
▁affordable	-12.1675
▁affordably	-12.1675
▁afforded	-12.1675
▁affording	-12.1675
▁affords	-12.1675
▁afforest	-12.1675
▁afforestation	-12.1675
▁afforested	-12.1675
▁afforesting	-12.1675
▁afforests	-12.1675
▁affra	-12.1675
▁affranchise	-12.1675
▁affray	-12.1675
▁affrays	-12.1675
▁affrica	-12.1675
▁affricate	-12.1675
▁affrication	-12.1675
▁affricative	-12.1675
▁affright	-12.1675
▁affrighted	-12.1675
▁affrighting	-12.1675
▁affrights	-12.1675
▁affront	-12.1675
▁affronte	-12.1675
▁affronted	-12.1675
▁affronting	-12.1675
▁affronts	-12.1675
▁affronty	-12.1675
▁affusion	-12.1675
▁afghan	-12.1675
▁afghani	-12.1675
▁afghanis	-12.1675
▁afghanistan	-12.1675
▁afghans	-12.1675
▁afibrinogenemia	-12.1675
▁aficionado	-12.1675
▁aficionados	-12.1675
▁afield	-12.1675
▁afire	-12.1675
▁aflame	-12.1675
▁aflare	-12.1675
▁aflatoxin	-12.1675
▁aflatoxins	-12.1675
▁aflex	-12.1675
▁afloat	-12.1675
▁aflood	-12.1675
▁aflutter	-12.1675
▁afoam	-12.1675
▁afoot	-12.1675
▁afore	-12.1675
▁aforementioned	-12.1675
▁aforesaid	-12.1675
▁aforethought	-12.1675
▁aforetime	-12.1675
▁afoul	-12.1675
▁afra	-12.1675
▁afraid	-12.1675
▁aframomum	-12.1675
▁afreet	-12.1675
▁afreets	-12.1675
▁afresh	-12.1675
▁afric	-12.1675
▁africa	-12.1675
▁africah	-12.1675
▁african	-12.1675
▁africana	-12.1675
▁africander	-12.1675
▁africanist	-12.1675
▁africanoid	-12.1675
▁africans	-12.1675
▁afrika	-12.1675
▁afrikaans	-12.1675
▁afrikah	-12.1675
▁afrikander	-12.1675
▁afrikaner	-12.1675
▁afrit	-12.1675
▁afrits	-12.1675
▁afro	-12.1675
▁afroasiatic	-12.1675
▁afrocarpus	-12.1675
▁afrocentrist	-12.1675
▁afropavo	-12.1675
▁aft	-12.1675
▁after	-12.1675
▁afterbirth	-12.1675
▁afterbirths	-12.1675
▁afterbody	-12.1675
▁afterbrain	-12.1675
▁afterburner	-12.1675
▁afterburners	-12.1675
▁afterburning	-12.1675
▁aftercare	-12.1675
▁afterclap	-12.1675
▁afterdamp	-12.1675
▁afterdeck	-12.1675
▁afterdecks	-12.1675
▁aftereffect	-12.1675
▁aftereffects	-12.1675
▁afterglow	-12.1675
▁afterglows	-12.1675
▁aftergrowth	-12.1675
▁afterguard	-12.1675
▁afterheat	-12.1675
▁afterimage	-12.1675
▁afterimages	-12.1675
▁afterlife	-12.1675
▁afterlives	-12.1675
▁aftermarket	-12.1675
▁aftermarkets	-12.1675
▁aftermath	-12.1675
▁aftermaths	-12.1675
▁aftermost	-12.1675
▁afternoon	-12.1675
▁afternoons	-12.1675
▁afterpains	-12.1675
▁afterpiece	-12.1675
▁afters	-12.1675
▁afterschool	-12.1675
▁aftersensation	-12.1675
▁aftershaft	-12.1675
▁aftershafted	-12.1675
▁aftershave	-12.1675
▁aftershaves	-12.1675
▁aftershock	-12.1675
▁aftershocks	-12.1675
▁aftersun	-12.1675
▁aftertaste	-12.1675
▁aftertastes	-12.1675
▁afterthought	-12.1675
▁afterthoughts	-12.1675
▁aftertime	-12.1675
▁afterward	-12.1675
▁afterwards	-12.1675
▁afterword	-12.1675
▁afterwords	-12.1675
▁afterworld	-12.1675
▁afterworlds	-12.1675
▁afteryears	-12.1675
▁aftmost	-12.1675
▁afton	-12.1675
▁ag	-12.1675
▁aga	-12.1675
▁agace	-12.1675
▁agadic	-12.1675
▁agadir	-12.1675
▁again	-12.1675
▁againe	-12.1675
▁against	-12.1675
▁agal	-12.1675
▁agalactia	-12.1675
▁agalinis	-12.1675
▁agalloch	-12.1675
▁agals	-12.1675
▁agama	-12.1675
▁agamas	-12.1675
▁agamemnon	-12.1675
▁agamete	-12.1675
▁agamic	-12.1675
▁agamid	-12.1675
▁agamidae	-12.1675
▁agamids	-12.1675
▁agammaglobulinemia	-12.1675
▁agamogenesis	-12.1675
▁agan	-12.1675
▁aganippe	-12.1675
▁agapanthus	-12.1675
▁agape	-12.1675
▁agapemone	-12.1675
▁agapes	-12.1675
▁agapornis	-12.1675
▁agar	-12.1675
▁agarbatti	-12.1675
▁agaric	-12.1675
▁agaricaceae	-12.1675
▁agaricales	-12.1675
▁agarics	-12.1675
▁agaricus	-12.1675
▁agarose	-12.1675
▁agars	-12.1675
▁agas	-12.1675
▁agassiz	-12.1675
▁agastache	-12.1675
▁agata	-12.1675
▁agate	-12.1675
▁agates	-12.1675
▁agateware	-12.1675
▁agathe	-12.1675
▁agathis	-12.1675
▁agathodaemon	-12.1675
▁agathy	-12.1675
▁agatize	-12.1675
▁agatizes	-12.1675
▁agavaceae	-12.1675
▁agave	-12.1675
▁agaves	-12.1675
▁agawam	-12.1675
▁agaze	-12.1675
▁agbogla	-12.1675
▁agco	-12.1675
▁agdestis	-12.1675
▁agdistis	-12.1675
▁age	-12.1675
▁aged	-12.1675
▁agedness	-12.1675
▁agee	-12.1675
▁ageing	-12.1675
▁ageism	-12.1675
▁ageist	-12.1675
▁ageists	-12.1675
▁agelaius	-12.1675
▁ageless	-12.1675
▁agelessly	-12.1675
▁agelessness	-12.1675
▁agelong	-12.1675
▁agencies	-12.1675
▁agency	-12.1675
▁agenda	-12.1675
▁agendas	-12.1675
▁agenesis	-12.1675
▁agenize	-12.1675
▁agent	-12.1675
▁agential	-12.1675
▁agentival	-12.1675
▁agentive	-12.1675
▁agents	-12.1675
▁ager	-12.1675
▁agerasia	-12.1675
▁ageratina	-12.1675
▁ageratum	-12.1675
▁ages	-12.1675
▁aggappe	-12.1675
▁aggappera	-12.1675
▁aggappora	-12.1675
▁aggarwal	-12.1675
▁agger	-12.1675
▁aggeus	-12.1675
▁aggi	-12.1675
▁aggie	-12.1675
▁aggies	-12.1675
▁aggiornamento	-12.1675
▁agglomerate	-12.1675
▁agglomerated	-12.1675
▁agglomerates	-12.1675
▁agglomerating	-12.1675
▁agglomeration	-12.1675
▁agglomerations	-12.1675
▁agglomerative	-12.1675
▁agglomerator	-12.1675
▁agglutinate	-12.1675
▁agglutinated	-12.1675
▁agglutinates	-12.1675
▁agglutinating	-12.1675
▁agglutination	-12.1675
▁agglutinations	-12.1675
▁agglutinative	-12.1675
▁agglutinin	-12.1675
▁agglutinogen	-12.1675
▁aggrade	-12.1675
▁aggrandisable	-12.1675
▁aggrandisement	-12.1675
▁aggrandizable	-12.1675
▁aggrandizement	-12.1675
▁aggrandizements	-12.1675
▁aggravate	-12.1675
▁aggravated	-12.1675
▁aggravates	-12.1675
▁aggravating	-12.1675
▁aggravatingly	-12.1675
▁aggravation	-12.1675
▁aggravations	-12.1675
▁aggravator	-12.1675
▁aggravators	-12.1675
▁aggregate	-12.1675
▁aggregated	-12.1675
▁aggregates	-12.1675
▁aggregating	-12.1675
▁aggregation	-12.1675
▁aggregations	-12.1675
▁aggregative	-12.1675
▁aggress	-12.1675
▁aggression	-12.1675
▁aggressions	-12.1675
▁aggressive	-12.1675
▁aggressively	-12.1675
▁aggressiveness	-12.1675
▁aggressor	-12.1675
▁aggressors	-12.1675
▁aggri	-12.1675
▁aggrieve	-12.1675
▁aggrieved	-12.1675
▁aggrievedly	-12.1675
▁aggrievement	-12.1675
▁aggrievements	-12.1675
▁aggro	-12.1675
▁aggy	-12.1675
▁agha	-12.1675
▁aghan	-12.1675
▁aghast	-12.1675
▁agile	-12.1675
▁agilely	-12.1675
▁agileness	-12.1675
▁agilenesses	-12.1675
▁agiler	-12.1675
▁agilest	-12.1675
▁agilities	-12.1675
▁agility	-12.1675
▁agin	-12.1675
▁agincourt	-12.1675
▁aging	-12.1675
▁agio	-12.1675
▁agios	-12.1675
▁agiotage	-12.1675
▁agism	-12.1675
▁agist	-12.1675
▁agisted	-12.1675
▁agister	-12.1675
▁agisters	-12.1675
▁agisting	-12.1675
▁agistment	-12.1675
▁agists	-12.1675
▁agita	-12.1675
▁agitas	-12.1675
▁agitate	-12.1675
▁agitated	-12.1675
▁agitatedly	-12.1675
▁agitates	-12.1675
▁agitating	-12.1675
▁agitation	-12.1675
▁agitations	-12.1675
▁agitative	-12.1675
▁agitato	-12.1675
▁agitator	-12.1675
▁agitators	-12.1675
▁agitprop	-12.1675
▁agkistrodon	-12.1675
▁aglaia	-12.1675
▁aglaomorpha	-12.1675
▁aglaonema	-12.1675
▁agle	-12.1675
▁agleam	-12.1675
▁agler	-12.1675
▁aglet	-12.1675
▁aglets	-12.1675
▁agley	-12.1675
▁aglimmer	-12.1675
▁aglitter	-12.1675
▁aglow	-12.1675
▁agma	-12.1675
▁agmas	-12.1675
▁agminate	-12.1675
▁agna	-12.1675
▁agnail	-12.1675
▁agnails	-12.1675
▁agnate	-12.1675
▁agnates	-12.1675
▁agnatha	-12.1675
▁agnathan	-12.1675
▁agnathans	-12.1675
▁agnatic	-12.1675
▁agnation	-12.1675
▁agnations	-12.1675
▁agnella	-12.1675
▁agnese	-12.1675
▁agnesse	-12.1675
▁agneta	-12.1675
▁agni	-12.1675
▁agnize	-12.1675
▁agnized	-12.1675
▁agnizes	-12.1675
▁agnizing	-12.1675
▁agnola	-12.1675
▁agnolotti	-12.1675
▁agnomen	-12.1675
▁agnosia	-12.1675
▁agnostic	-12.1675
▁agnosticism	-12.1675
▁agnostics	-12.1675
▁ago	-12.1675
▁agog	-12.1675
▁agogic	-12.1675
▁agogics	-12.1675
▁agogo	-12.1675
▁agogos	-12.1675
▁agon	-12.1675
▁agonadal	-12.1675
▁agonal	-12.1675
▁agone	-12.1675
▁agonic	-12.1675
▁agonidae	-12.1675
▁agonies	-12.1675
▁agonise	-12.1675
▁agonised	-12.1675
▁agoniser	-12.1675
▁agonises	-12.1675
▁agonising	-12.1675
▁agonisingly	-12.1675
▁agonism	-12.1675
▁agonisms	-12.1675
▁agonist	-12.1675
▁agonistic	-12.1675
▁agonists	-12.1675
▁agonize	-12.1675
▁agonized	-12.1675
▁agonizedly	-12.1675
▁agonizer	-12.1675
▁agonizes	-12.1675
▁agonizing	-12.1675
▁agonizingly	-12.1675
▁agonus	-12.1675
▁agony	-12.1675
▁agora	-12.1675
▁agorae	-12.1675
▁agoraphobe	-12.1675
▁agoraphobes	-12.1675
▁agoraphobia	-12.1675
▁agoraphobic	-12.1675
▁agoraphobics	-12.1675
▁agoras	-12.1675
▁agorot	-12.1675
▁agoroth	-12.1675
▁agostino	-12.1675
▁agosto	-12.1675
▁agouti	-12.1675
▁agoutis	-12.1675
▁agra	-12.1675
▁agraffe	-12.1675
▁agram	-12.1675
▁agranulocytic	-12.1675
▁agranulocytosis	-12.1675
▁agrapha	-12.1675
▁agraphia	-12.1675
▁agraphic	-12.1675
▁agrarian	-12.1675
▁agrarianise	-12.1675
▁agrarianism	-12.1675
▁agrarianize	-12.1675
▁agrarians	-12.1675
▁agre	-12.1675
▁agree	-12.1675
▁agreeable	-12.1675
▁agreeableness	-12.1675
▁agreeably	-12.1675
▁agreed	-12.1675
▁agreeing	-12.1675
▁agreement	-12.1675
▁agreements	-12.1675
▁agrees	-12.1675
▁agrestic	-12.1675
▁agretha	-12.1675
▁agribusiness	-12.1675
▁agribusinesses	-12.1675
▁agribusinessman	-12.1675
▁agribusinessmen	-12.1675
▁agricola	-12.1675
▁agricultural	-12.1675
▁agriculturalist	-12.1675
▁agriculturalists	-12.1675
▁agriculturally	-12.1675
▁agriculture	-12.1675
▁agriculturist	-12.1675
▁agriculturists	-12.1675
▁agrigento	-12.1675
▁agrimonia	-12.1675
▁agrimony	-12.1675
▁agriocharis	-12.1675
▁agrion	-12.1675
▁agrions	-12.1675
▁agripina	-12.1675
▁agrippa	-12.1675
▁agrippina	-12.1675
▁agrised	-12.1675
▁agrises	-12.1675
▁agrising	-12.1675
▁agrize	-12.1675
▁agrized	-12.1675
▁agrizes	-12.1675
▁agrizing	-12.1675
▁agrobacterium	-12.1675
▁agrobiologic	-12.1675
▁agrobiology	-12.1675
▁agrochemical	-12.1675
▁agrochemicals	-12.1675
▁agrologic	-12.1675
▁agrology	-12.1675
▁agromania	-12.1675
▁agronomic	-12.1675
▁agronomical	-12.1675
▁agronomically	-12.1675
▁agronomics	-12.1675
▁agronomist	-12.1675
▁agronomists	-12.1675
▁agronomy	-12.1675
▁agropyron	-12.1675
▁agrostemma	-12.1675
▁agrostis	-12.1675
▁agrostology	-12.1675
▁aground	-12.1675
▁agrresiv	-12.1675
▁agrypnia	-12.1675
▁agrypnotic	-12.1675
▁ags	-12.1675
▁agua	-12.1675
▁aguada	-12.1675
▁aguadilla	-12.1675
▁aguadulce	-12.1675
▁aguanga	-12.1675
▁aguayo	-12.1675
▁ague	-12.1675
▁aguecheek	-12.1675
▁agued	-12.1675
▁agueda	-12.1675
▁agues	-12.1675
▁agueweed	-12.1675
▁aguie	-12.1675
▁aguila	-12.1675
▁aguised	-12.1675
▁aguises	-12.1675
▁aguish	-12.1675
▁aguising	-12.1675
▁aguistin	-12.1675
▁aguize	-12.1675
▁aguized	-12.1675
▁aguizes	-12.1675
▁aguizing	-12.1675
▁agulhas	-12.1675
▁aguste	-12.1675
▁agutter	-12.1675
▁ah	-12.1675
▁aha	-12.1675
▁ahab	-12.1675
▁ahabs	-12.1675
▁ahaggar	-12.1675
▁aharon	-12.1675
▁ahasuerus	-12.1675
▁ahaz	-12.1675
▁ahders	-12.1675
▁ahead	-12.1675
▁ahearn	-12.1675
▁ahem	-12.1675
▁ahems	-12.1675
▁ahern	-12.1675
▁ahgwahching	-12.1675
▁ahi	-12.1675
▁ahimsa	-12.1675
▁ahimsas	-12.1675
▁ahis	-12.1675
▁ahistorical	-12.1675
▁ahithophel	-12.1675
▁ahiver	-12.1675
▁ahl	-12.1675
▁ahlgren	-12.1675
▁ahmanson	-12.1675
▁ahmar	-12.1675
▁ahmedabad	-12.1675
▁ahmednagar	-12.1675
▁ahmeek	-12.1675
▁ahola	-12.1675
▁aholah	-12.1675
▁aholehole	-12.1675
▁aholla	-12.1675
▁ahoskie	-12.1675
▁ahoufe	-12.1675
▁ahouh	-12.1675
▁ahoy	-12.1675
▁ahoys	-12.1675
▁ahrendt	-12.1675
▁ahrens	-12.1675
▁ahriman	-12.1675
▁ahron	-12.1675
▁ahsahka	-12.1675
▁ahuehuete	-12.1675
▁ahura	-12.1675
▁ahuramazda	-12.1675
▁ahvenanmaa	-12.1675
▁ahwahnee	-12.1675
▁ahwaz	-12.1675
▁ai	-12.1675
▁aia	-12.1675
▁aibonito	-12.1675
▁aid	-12.1675
▁aidan	-12.1675
▁aide	-12.1675
▁aided	-12.1675
▁aiden	-12.1675
▁aider	-12.1675
▁aiders	-12.1675
▁aides	-12.1675
▁aiding	-12.1675
▁aidoneus	-12.1675
▁aids	-12.1675
▁aiea	-12.1675
▁aiello	-12.1675
▁aiglet	-12.1675
▁aigneis	-12.1675
▁aigre	-12.1675
▁aigret	-12.1675
▁aigrets	-12.1675
▁aigrette	-12.1675
▁aigrettes	-12.1675
▁aiguille	-12.1675
▁aiguilles	-12.1675
▁aiguillette	-12.1675
▁aiken	-12.1675
▁aikido	-12.1675
▁aikidos	-12.1675
▁ail	-12.1675
▁aila	-12.1675
▁ailanthus	-12.1675
▁ailanthuses	-12.1675
▁ailbert	-12.1675
▁aile	-12.1675
▁ailed	-12.1675
▁ailee	-12.1675
▁ailene	-12.1675
▁aileron	-12.1675
▁ailerons	-12.1675
▁ailey	-12.1675
▁aili	-12.1675
▁ailin	-12.1675
▁ailina	-12.1675
▁ailing	-12.1675
▁ailis	-12.1675
▁ailment	-12.1675
▁ailments	-12.1675
▁ails	-12.1675
▁ailsa	-12.1675
▁ailssa	-12.1675
▁ailsun	-12.1675
▁ailurophile	-12.1675
▁ailurophobe	-12.1675
▁ailurophobia	-12.1675
▁ailuropoda	-12.1675
▁ailuropodidae	-12.1675
▁ailurus	-12.1675
▁ailyn	-12.1675
▁aim	-12.1675
▁aime	-12.1675
▁aimed	-12.1675
▁aimil	-12.1675
▁aiming	-12.1675
▁aimless	-12.1675
▁aimlessly	-12.1675
▁aimlessness	-12.1675
▁aimo	-12.1675
▁aims	-12.1675
▁aimwell	-12.1675
▁ain	-12.1675
▁aindrea	-12.1675
▁ainslee	-12.1675
▁ainsley	-12.1675
▁ainslie	-12.1675
▁ainsworth	-12.1675
▁aint	-12.1675
▁aintab	-12.1675
▁aintree	-12.1675
▁ainus	-12.1675
▁aioli	-12.1675
▁aiolis	-12.1675
▁air	-12.1675
▁airbag	-12.1675
▁airbags	-12.1675
▁airband	-12.1675
▁airbands	-12.1675
▁airbase	-12.1675
▁airbases	-12.1675
▁airbed	-12.1675
▁airbeds	-12.1675
▁airboat	-12.1675
▁airboats	-12.1675
▁airborne	-12.1675
▁airbrake	-12.1675
▁airbrick	-12.1675
▁airbricks	-12.1675
▁airbrush	-12.1675
▁airbrushed	-12.1675
▁airbrushes	-12.1675
▁airbrushing	-12.1675
▁airburst	-12.1675
▁airbursts	-12.1675
▁airbus	-12.1675
▁airbuses	-12.1675
▁aircraft	-12.1675
▁aircraftman	-12.1675
▁aircraftmen	-12.1675
▁aircraftsman	-12.1675
▁aircrew	-12.1675
▁aircrewman	-12.1675
▁aircrews	-12.1675
▁airdock	-12.1675
▁airdrie	-12.1675
▁airdrome	-12.1675
▁airdromes	-12.1675
▁airdrop	-12.1675
▁airdropped	-12.1675
▁airdropping	-12.1675
▁airdrops	-12.1675
▁aire	-12.1675
▁aired	-12.1675
▁airedale	-12.1675
▁airel	-12.1675
▁airer	-12.1675
▁airers	-12.1675
▁aires	-12.1675
▁airfare	-12.1675
▁airfares	-12.1675
▁airfield	-12.1675
▁airfields	-12.1675
▁airflow	-12.1675
▁airflows	-12.1675
▁airfoil	-12.1675
▁airfoils	-12.1675
▁airframe	-12.1675
▁airframes	-12.1675
▁airfreight	-12.1675
▁airgel	-12.1675
▁airglow	-12.1675
▁airgun	-12.1675
▁airguns	-12.1675
▁airhead	-12.1675
▁airheaded	-12.1675
▁airheads	-12.1675
▁airier	-12.1675
▁airiest	-12.1675
▁airily	-12.1675
▁airiness	-12.1675
▁airing	-12.1675
▁airings	-12.1675
▁airla	-12.1675
▁airlee	-12.1675
▁airless	-12.1675
▁airlessness	-12.1675
▁airletter	-12.1675
▁airletters	-12.1675
▁airley	-12.1675
▁airlia	-12.1675
▁airliah	-12.1675
▁airlie	-12.1675
▁airlift	-12.1675
▁airlifted	-12.1675
▁airlifting	-12.1675
▁airlifts	-12.1675
▁airlike	-12.1675
▁airline	-12.1675
▁airliner	-12.1675
▁airliners	-12.1675
▁airlines	-12.1675
▁airlock	-12.1675
▁airlocks	-12.1675
▁airmail	-12.1675
▁airmailed	-12.1675
▁airmailer	-12.1675
▁airmailing	-12.1675
▁airmails	-12.1675
▁airman	-12.1675
▁airmen	-12.1675
▁airmobile	-12.1675
▁airplane	-12.1675
▁airplanes	-12.1675
▁airplay	-12.1675
▁airport	-12.1675
▁airports	-12.1675
▁airpower	-12.1675
▁airpowers	-12.1675
▁airs	-12.1675
▁airscrew	-12.1675
▁airscrews	-12.1675
▁airship	-12.1675
▁airships	-12.1675
▁airshow	-12.1675
▁airshows	-12.1675
▁airsick	-12.1675
▁airsickness	-12.1675
▁airside	-12.1675
▁airsides	-12.1675
▁airspace	-12.1675
▁airspeed	-12.1675
▁airstream	-12.1675
▁airstrike	-12.1675
▁airstrikes	-12.1675
▁airstrip	-12.1675
▁airstrips	-12.1675
▁airt	-12.1675
▁airth	-12.1675
▁airtight	-12.1675
▁airtime	-12.1675
▁airville	-12.1675
▁airwave	-12.1675
▁airwaves	-12.1675
▁airway	-12.1675
▁airways	-12.1675
▁airwoman	-12.1675
▁airwomen	-12.1675
▁airworthier	-12.1675
▁airworthiest	-12.1675
▁airworthiness	-12.1675
▁airworthy	-12.1675
▁airy	-12.1675
▁ais	-12.1675
▁aisle	-12.1675
▁aisled	-12.1675
▁aisles	-12.1675
▁aisling	-12.1675
▁aisne	-12.1675
▁ait	-12.1675
▁aitch	-12.1675
▁aitchbone	-12.1675
▁aitches	-12.1675
▁aitken	-12.1675
▁aitkin	-12.1675
▁aits	-12.1675
▁aizoaceae	-12.1675
▁aizoon	-12.1675
▁ajaccio	-12.1675
▁ajaia	-12.1675
▁ajani	-12.1675
▁ajar	-12.1675
▁ajax	-12.1675
▁ajay	-12.1675
▁ajit	-12.1675
▁ajmer	-12.1675
▁ajo	-12.1675
▁ajowan	-12.1675
▁ajowans	-12.1675
▁ajuga	-12.1675
▁ajugas	-12.1675
▁aka	-12.1675
▁akaba	-12.1675
▁akan	-12.1675
▁akanke	-12.1675
▁akara	-12.1675
▁akaras	-12.1675
▁akaryocyte	-12.1675
▁akasha	-12.1675
▁akashas	-12.1675
▁akashic	-12.1675
▁akaska	-12.1675
▁akebia	-12.1675
▁akebias	-12.1675
▁akee	-12.1675
▁akees	-12.1675
▁akel	-12.1675
▁akela	-12.1675
▁akelas	-12.1675
▁akeley	-12.1675
▁akene	-12.1675
▁aker	-12.1675
▁akerboom	-12.1675
▁akeridae	-12.1675
▁akerley	-12.1675
▁akers	-12.1675
▁akeyla	-12.1675
▁akeylah	-12.1675
▁akhbari	-12.1675
▁akhenaton	-12.1675
▁akhnaton	-12.1675
▁akiachak	-12.1675
▁akiak	-12.1675
▁akili	-12.1675
▁akim	-12.1675
▁akimbo	-12.1675
▁akin	-12.1675
▁akinesia	-12.1675
▁akinesis	-12.1675
▁akinetic	-12.1675
▁akins	-12.1675
▁akira	-12.1675
▁akkadian	-12.1675
▁akkadians	-12.1675
▁akkerman	-12.1675
▁aklog	-12.1675
▁akmolinsk	-12.1675
▁akrasia	-12.1675
▁akratic	-12.1675
▁akre	-12.1675
▁akron	-12.1675
▁aks	-12.1675
▁aksed	-12.1675
▁aksel	-12.1675
▁akses	-12.1675
▁aksing	-12.1675
▁aksoyn	-12.1675
▁aksum	-12.1675
▁akutan	-12.1675
▁akvavit	-12.1675
▁akvavits	-12.1675
▁ala	-12.1675
▁alaap	-12.1675
▁alaaps	-12.1675
▁alabama	-12.1675
▁alabaman	-12.1675
▁alabaster	-12.1675
▁alachua	-12.1675
▁alack	-12.1675
▁alacks	-12.1675
▁alacritous	-12.1675
▁alacrity	-12.1675
▁aladdin	-12.1675
▁alae	-12.1675
▁alage	-12.1675
▁alagez	-12.1675
▁alagoas	-12.1675
▁alai	-12.1675
▁alain	-12.1675
▁alaine	-12.1675
▁alair	-12.1675
▁alakanuk	-12.1675
▁alake	-12.1675
▁alalia	-12.1675
▁alamance	-12.1675
▁alameda	-12.1675
▁alamedas	-12.1675
▁alamein	-12.1675
▁alamo	-12.1675
▁alamode	-12.1675
▁alamosa	-12.1675
▁alamota	-12.1675
▁alanah	-12.1675
▁alanbrooke	-12.1675
▁aland	-12.1675
▁alane	-12.1675
▁alanine	-12.1675
▁alanna	-12.1675
▁alannah	-12.1675
▁alannahs	-12.1675
▁alannas	-12.1675
▁alano	-12.1675
▁alanreed	-12.1675
▁alansen	-12.1675
▁alanson	-12.1675
▁alap	-12.1675
▁alapaha	-12.1675
▁alaps	-12.1675
▁alar	-12.1675
▁alard	-12.1675
▁alaric	-12.1675
▁alarice	-12.1675
▁alarick	-12.1675
▁alarise	-12.1675
▁alarm	-12.1675
▁alarmed	-12.1675
▁alarming	-12.1675
▁alarmingly	-12.1675
▁alarmism	-12.1675
▁alarmisms	-12.1675
▁alarmist	-12.1675
▁alarmists	-12.1675
▁alarms	-12.1675
▁alarum	-12.1675
▁alarums	-12.1675
▁alary	-12.1675
▁alas	-12.1675
▁alasdair	-12.1675
▁alases	-12.1675
▁alaska	-12.1675
▁alaskan	-12.1675
▁alastair	-12.1675
▁alasteir	-12.1675
▁alaster	-12.1675
▁alastrim	-12.1675
▁alate	-12.1675
▁alatea	-12.1675
▁alathia	-12.1675
▁alauda	-12.1675
▁alaudidae	-12.1675
▁alayne	-12.1675
▁alb	-12.1675
▁alba	-12.1675
▁albacete	-12.1675
▁albacore	-12.1675
▁albacores	-12.1675
▁alban	-12.1675
▁albania	-12.1675
▁albanian	-12.1675
▁albany	-12.1675
▁albarran	-12.1675
▁albas	-12.1675
▁albata	-12.1675
▁albatrellus	-12.1675
▁albatross	-12.1675
▁albatrosses	-12.1675
▁albedo	-12.1675
▁albedoes	-12.1675
▁albedos	-12.1675
▁albee	-12.1675
▁albeit	-12.1675
▁albemarle	-12.1675
▁alben	-12.1675
▁albeniz	-12.1675
▁alber	-12.1675
▁alberic	-12.1675
▁alberich	-12.1675
▁alberik	-12.1675
▁albermarle	-12.1675
▁albers	-12.1675
▁albert	-12.1675
▁alberta	-12.1675
▁alberti	-12.1675
▁albertina	-12.1675
▁albertine	-12.1675
▁albertite	-12.1675
▁albertlea	-12.1675
▁alberton	-12.1675
▁alberts	-12.1675
▁albertson	-12.1675
▁albertville	-12.1675
▁albertype	-12.1675
▁albescent	-12.1675
▁albi	-12.1675
▁albia	-12.1675
▁albicore	-12.1675
▁albie	-12.1675
▁albigenses	-12.1675
▁albigensian	-12.1675
▁albigensianism	-12.1675
▁albin	-12.1675
▁albina	-12.1675
▁albinal	-12.1675
▁albinism	-12.1675
▁albinisms	-12.1675
▁albino	-12.1675
▁albinoni	-12.1675
▁albinos	-12.1675
▁albinus	-12.1675
▁albion	-12.1675
▁albite	-12.1675
▁albitic	-12.1675
▁albitize	-12.1675
▁albitized	-12.1675
▁albitizes	-12.1675
▁albitizing	-12.1675
▁albizzia	-12.1675
▁albizzias	-12.1675
▁alboin	-12.1675
▁alboran	-12.1675
▁alborg	-12.1675
▁alborn	-12.1675
▁albrecht	-12.1675
▁albric	-12.1675
▁albright	-12.1675
▁albs	-12.1675
▁albuca	-12.1675
▁albuginaceae	-12.1675
▁albuginea	-12.1675
▁albugo	-12.1675
▁albula	-12.1675
▁albulidae	-12.1675
▁album	-12.1675
▁albumen	-12.1675
▁albumeniser	-12.1675
▁albumenized	-12.1675
▁albumenizer	-12.1675
▁albumenizes	-12.1675
▁albumenizing	-12.1675
▁albumin	-12.1675
▁albuminate	-12.1675
▁albuminisation	-12.1675
▁albuminization	-12.1675
▁albuminized	-12.1675
▁albuminizes	-12.1675
▁albuminizing	-12.1675
▁albuminoid	-12.1675
▁albuminous	-12.1675
▁albuminuria	-12.1675
▁albuminuric	-12.1675
▁albumose	-12.1675
▁albums	-12.1675
▁albuquerque	-12.1675
▁albur	-12.1675
▁alburg	-12.1675
▁alburga	-12.1675
▁alburnett	-12.1675
▁alburnum	-12.1675
▁alburtis	-12.1675
▁albuterol	-12.1675
▁alby	-12.1675
▁alca	-12.1675
▁alcaeus	-12.1675
▁alcahest	-12.1675
▁alcahests	-12.1675
▁alcaic	-12.1675
▁alcaics	-12.1675
▁alcaide	-12.1675
▁alcalde	-12.1675
▁alcaldes	-12.1675
▁alcatel	-12.1675
▁alcazar	-12.1675
▁alcazars	-12.1675
▁alcea	-12.1675
▁alcedinidae	-12.1675
▁alcedo	-12.1675
▁alcelaphus	-12.1675
▁alces	-12.1675
▁alceste	-12.1675
▁alcester	-12.1675
▁alchemic	-12.1675
▁alchemical	-12.1675
▁alchemically	-12.1675
▁alchemise	-12.1675
▁alchemist	-12.1675
▁alchemistic	-12.1675
▁alchemists	-12.1675
▁alchemize	-12.1675
▁alchemy	-12.1675
▁alcheringa	-12.1675
▁alcibiades	-12.1675
▁alcid	-12.1675
▁alcidae	-12.1675
▁alcides	-12.1675
▁alcids	-12.1675
▁alcina	-12.1675
▁alcine	-12.1675
▁alcinia	-12.1675
▁alcmene	-12.1675
▁alco	-12.1675
▁alcock	-12.1675
▁alcohol	-12.1675
▁alcoholic	-12.1675
▁alcoholically	-12.1675
▁alcoholicity	-12.1675
▁alcoholics	-12.1675
▁alcoholisable	-12.1675
▁alcoholisations	-12.1675
▁alcoholism	-12.1675
▁alcoholizable	-12.1675
▁alcoholization	-12.1675
▁alcoholizations	-12.1675
▁alcoholize	-12.1675
▁alcoholized	-12.1675
▁alcoholizes	-12.1675
▁alcoholizing	-12.1675
▁alcoholometer	-12.1675
▁alcohols	-12.1675
▁alcolu	-12.1675
▁alcopop	-12.1675
▁alcopops	-12.1675
▁alcor	-12.1675
▁alcoran	-12.1675
▁alcot	-12.1675
▁alcott	-12.1675
▁alcova	-12.1675
▁alcove	-12.1675
▁alcoves	-12.1675
▁alcus	-12.1675
▁alcyonacea	-12.1675
▁alcyonaria	-12.1675
▁alcyone	-12.1675
▁alcyonium	-12.1675
▁ald	-12.1675
▁alda	-12.1675
▁aldabra	-12.1675
▁aldarcie	-12.1675
▁aldarcy	-12.1675
▁aldas	-12.1675
▁aldebaran	-12.1675
▁aldeburgh	-12.1675
▁alded	-12.1675
▁aldehyde	-12.1675
▁aldehydes	-12.1675
▁aldehydic	-12.1675
▁aldenville	-12.1675
▁alder	-12.1675
▁aldercy	-12.1675
▁alderfly	-12.1675
▁alderman	-12.1675
▁aldermanic	-12.1675
▁aldermaston	-12.1675
▁aldermen	-12.1675
▁alderney	-12.1675
▁alderneys	-12.1675
▁alders	-12.1675
▁aldershot	-12.1675
▁alderson	-12.1675
▁aldhelm	-12.1675
▁aldiborontiphoscophornia	-12.1675
▁aldicarb	-12.1675
▁aldie	-12.1675
▁aldin	-12.1675
▁aldine	-12.1675
▁aldis	-12.1675
▁aldiss	-12.1675
▁aldohexose	-12.1675
▁aldol	-12.1675
▁aldon	-12.1675
▁aldora	-12.1675
▁aldos	-12.1675
▁aldose	-12.1675
▁aldosterone	-12.1675
▁aldosteronism	-12.1675
▁aldous	-12.1675
▁aldred	-12.1675
▁aldredge	-12.1675
▁aldric	-12.1675
▁aldrich	-12.1675
▁aldridge	-12.1675
▁aldrin	-12.1675
▁aldrovanda	-12.1675
▁aldrovandi	-12.1675
▁aldrovandus	-12.1675
▁alduino	-12.1675
▁aldus	-12.1675
▁aldwin	-12.1675
▁aldwon	-12.1675
▁ale	-12.1675
▁aleak	-12.1675
▁aleatoric	-12.1675
▁aleatory	-12.1675
▁alecia	-12.1675
▁aleck	-12.1675
▁alecost	-12.1675
▁alecosts	-12.1675
▁alectis	-12.1675
▁alecto	-12.1675
▁alectoria	-12.1675
▁alectoris	-12.1675
▁alectryomancy	-12.1675
▁alectura	-12.1675
▁aleda	-12.1675
▁aledo	-12.1675
▁alee	-12.1675
▁aleece	-12.1675
▁aleedis	-12.1675
▁aleen	-12.1675
▁aleetha	-12.1675
▁alegar	-12.1675
▁alegre	-12.1675
▁alehouse	-12.1675
▁alehouses	-12.1675
▁alejandrina	-12.1675
▁alejo	-12.1675
▁alejoa	-12.1675
▁alek	-12.1675
▁alekhine	-12.1675
▁aleknagik	-12.1675
▁aleksandr	-12.1675
▁aleksandropol	-12.1675
▁aleksandrovsk	-12.1675
▁alemanni	-12.1675
▁alemannic	-12.1675
▁alembic	-12.1675
▁alembics	-12.1675
▁alena	-12.1675
▁alendronate	-12.1675
▁alene	-12.1675
▁alenson	-12.1675
▁aleph	-12.1675
▁alephs	-12.1675
▁alepisaurus	-12.1675
▁aleras	-12.1675
▁alerce	-12.1675
▁alerces	-12.1675
▁alerion	-12.1675
▁aleris	-12.1675
▁aleron	-12.1675
▁alert	-12.1675
▁alerted	-12.1675
▁alerter	-12.1675
▁alertest	-12.1675
▁alerting	-12.1675
▁alertly	-12.1675
▁alertness	-12.1675
▁alerts	-12.1675
▁ales	-12.1675
▁alesandrini	-12.1675
▁alessandra	-12.1675
▁alessandria	-12.1675
▁alessandro	-12.1675
▁aleta	-12.1675
▁aletha	-12.1675
▁alethea	-12.1675
▁alethia	-12.1675
▁alethic	-12.1675
▁aletris	-12.1675
▁aletta	-12.1675
▁aleucaemic	-12.1675
▁aleukaemic	-12.1675
▁aleurites	-12.1675
▁aleuromancy	-12.1675
▁aleurone	-12.1675
▁aleuronic	-12.1675
▁aleut	-12.1675
▁aleutian	-12.1675
▁alevin	-12.1675
▁alevins	-12.1675
▁alewife	-12.1675
▁alewives	-12.1675
▁alexa	-12.1675
▁alexander	-12.1675
▁alexanders	-12.1675
▁alexandr	-12.1675
▁alexandre	-12.1675
▁alexandretta	-12.1675
▁alexandria	-12.1675
▁alexandrian	-12.1675
▁alexandrina	-12.1675
▁alexandrine	-12.1675
▁alexandrines	-12.1675
▁alexandrite	-12.1675
▁alexandro	-12.1675
▁alexandros	-12.1675
▁alexi	-12.1675
▁alexia	-12.1675
▁alexias	-12.1675
▁alexic	-12.1675
▁alexin	-12.1675
▁alexina	-12.1675
▁alexine	-12.1675
▁alexio	-12.1675
▁alexipharmic	-12.1675
▁alexis	-12.1675
▁aley	-12.1675
▁aleydis	-12.1675
▁aleyrodes	-12.1675
▁aleyrodidae	-12.1675
▁alf	-12.1675
▁alfalfa	-12.1675
▁alfeus	-12.1675
▁alfi	-12.1675
▁alfie	-12.1675
▁alfieri	-12.1675
▁alfilaria	-12.1675
▁alfisol	-12.1675
▁alfisols	-12.1675
▁alfoil	-12.1675
▁alfons	-12.1675
▁alfonse	-12.1675
▁alforja	-12.1675
▁alfred	-12.1675
▁alfresco	-12.1675
▁alfs	-12.1675
▁alfy	-12.1675
▁alg	-12.1675
▁alga	-12.1675
▁algae	-12.1675
▁algaesthesis	-12.1675
▁algal	-12.1675
▁algar	-12.1675
▁algarroba	-12.1675
▁algarve	-12.1675
▁algebra	-12.1675
▁algebraic	-12.1675
▁algebraical	-12.1675
▁algebraically	-12.1675
▁algebraisation	-12.1675
▁algebraise	-12.1675
▁algebraist	-12.1675
▁algebraization	-12.1675
▁algebraize	-12.1675
▁algebras	-12.1675
▁algeciras	-12.1675
▁alger	-12.1675
▁algeria	-12.1675
▁algerian	-12.1675
▁algerine	-12.1675
▁algerines	-12.1675
▁algeripithecus	-12.1675
▁algernon	-12.1675
▁algesia	-12.1675
▁algetic	-12.1675
▁algicide	-12.1675
▁algicides	-12.1675
▁algid	-12.1675
▁algidity	-12.1675
▁algie	-12.1675
▁algiers	-12.1675
▁algin	-12.1675
▁alginate	-12.1675
▁alginates	-12.1675
▁algoid	-12.1675
▁algol	-12.1675
▁algolagnia	-12.1675
▁algolagnic	-12.1675
▁algology	-12.1675
▁algoma	-12.1675
▁algometer	-12.1675
▁algometric	-12.1675
▁algometry	-12.1675
▁algona	-12.1675
▁algonac	-12.1675
▁algonkian	-12.1675
▁algonkians	-12.1675
▁algonkin	-12.1675
▁algonkins	-12.1675
▁algonquian	-12.1675
▁algophobia	-12.1675
▁algophobic	-12.1675
▁algor	-12.1675
▁algorism	-12.1675
▁algorithm	-12.1675
▁algorithmic	-12.1675
▁algorithmically	-12.1675
▁algorithms	-12.1675
▁algren	-12.1675
▁alguacil	-12.1675
▁alguire	-12.1675
▁algy	-12.1675
▁alhagi	-12.1675
▁alhaja	-12.1675
▁alhajas	-12.1675
▁alhaji	-12.1675
▁alhajis	-12.1675
▁alhambra	-12.1675
▁alhazen	-12.1675
▁alia	-12.1675
▁alias	-12.1675
▁aliased	-12.1675
▁aliases	-12.1675
▁aliasing	-12.1675
▁aliber	-12.1675
▁alibi	-12.1675
▁alibied	-12.1675
▁alibiing	-12.1675
▁alibis	-12.1675
▁alible	-12.1675
▁alic	-12.1675
▁alica	-12.1675
▁alicante	-12.1675
▁alicea	-12.1675
▁aliceville	-12.1675
▁alicia	-12.1675
▁alick	-12.1675
▁alicyclic	-12.1675
▁alida	-12.1675
▁alidade	-12.1675
▁alidades	-12.1675
▁alidia	-12.1675
▁alidis	-12.1675
▁alidus	-12.1675
▁alie	-12.1675
▁alief	-12.1675
▁alien	-12.1675
▁alienabilities	-12.1675
▁alienability	-12.1675
▁alienable	-12.1675
▁alienage	-12.1675
▁alienate	-12.1675
▁alienated	-12.1675
▁alienates	-12.1675
▁alienating	-12.1675
▁alienation	-12.1675
▁alienator	-12.1675
▁alienators	-12.1675
▁aliened	-12.1675
▁alienee	-12.1675
▁aliening	-12.1675
▁alienise	-12.1675
▁alienism	-12.1675
▁alienist	-12.1675
▁alienists	-12.1675
▁alienize	-12.1675
▁alienness	-12.1675
▁aliennesses	-12.1675
▁alienor	-12.1675
▁aliens	-12.1675
▁aliform	-12.1675
▁aligarh	-12.1675
▁alight	-12.1675
▁alighted	-12.1675
▁alighting	-12.1675
▁alights	-12.1675
▁align	-12.1675
▁aligned	-12.1675
▁aligner	-12.1675
▁aligners	-12.1675
▁aligning	-12.1675
▁alignment	-12.1675
▁alignments	-12.1675
▁aligns	-12.1675
▁alika	-12.1675
▁alike	-12.1675
▁alikee	-12.1675
▁alikeness	-12.1675
▁alikenesses	-12.1675
▁aliment	-12.1675
▁alimentary	-12.1675
▁alimentation	-12.1675
▁alimentative	-12.1675
▁alimented	-12.1675
▁alimenting	-12.1675
▁aliments	-12.1675
▁alimony	-12.1675
▁alina	-12.1675
▁alinement	-12.1675
▁alinna	-12.1675
▁aliped	-12.1675
▁aliphatic	-12.1675
▁aliquant	-12.1675
▁aliquippa	-12.1675
▁aliquot	-12.1675
▁aliquoted	-12.1675
▁aliquots	-12.1675
▁alisan	-12.1675
▁alisander	-12.1675
▁alisen	-12.1675
▁alisia	-12.1675
▁alisma	-12.1675
▁alismaceae	-12.1675
▁alismataceae	-12.1675
▁alismatidae	-12.1675
▁alister	-12.1675
▁alisun	-12.1675
▁alit	-12.1675
▁alita	-12.1675
▁aliteracy	-12.1675
▁aliterate	-12.1675
▁alitha	-12.1675
▁alithea	-12.1675
▁alithia	-12.1675
▁alitta	-12.1675
▁aliunde	-12.1675
▁alius	-12.1675
▁alive	-12.1675
▁aliveness	-12.1675
▁alix	-12.1675
▁aliyah	-12.1675
▁aliyahs	-12.1675
▁aliyoth	-12.1675
▁aliza	-12.1675
▁alizarin	-12.1675
▁alizarins	-12.1675
▁alkabo	-12.1675
▁alkahest	-12.1675
▁alkahestic	-12.1675
▁alkahests	-12.1675
▁alkalemia	-12.1675
▁alkalescent	-12.1675
▁alkali	-12.1675
▁alkalic	-12.1675
▁alkalies	-12.1675
▁alkalify	-12.1675
▁alkalimeter	-12.1675
▁alkalimetry	-12.1675
▁alkaline	-12.1675
▁alkalinity	-12.1675
▁alkalinization	-12.1675
▁alkalinizations	-12.1675
▁alkalinize	-12.1675
▁alkalinuria	-12.1675
▁alkalis	-12.1675
▁alkalisable	-12.1675
▁alkalise	-12.1675
▁alkalised	-12.1675
▁alkaliser	-12.1675
▁alkalises	-12.1675
▁alkalizable	-12.1675
▁alkalize	-12.1675
▁alkalized	-12.1675
▁alkalizer	-12.1675
▁alkalizes	-12.1675
▁alkaloid	-12.1675
▁alkaloidal	-12.1675
▁alkaloids	-12.1675
▁alkaloses	-12.1675
▁alkalosis	-12.1675
▁alkalotic	-12.1675
▁alkane	-12.1675
▁alkanes	-12.1675
▁alkanet	-12.1675
▁alkanets	-12.1675
▁alkapton	-12.1675
▁alkaptonuria	-12.1675
▁alkene	-12.1675
▁alkenes	-12.1675
▁alkie	-12.1675
▁alkies	-12.1675
▁alkmaar	-12.1675
▁alkol	-12.1675
▁alkoran	-12.1675
▁alky	-12.1675
▁alkyd	-12.1675
▁alkyds	-12.1675
▁alkyl	-12.1675
▁alkylate	-12.1675
▁alkylated	-12.1675
▁alkylates	-12.1675
▁alkylation	-12.1675
▁alkylbenzene	-12.1675
▁alkylbenzenesulfonate	-12.1675
▁alkylic	-12.1675
▁alkyne	-12.1675
▁alkynes	-12.1675
▁all	-12.1675
▁alla	-12.1675
▁allah	-12.1675
▁allain	-12.1675
▁allamanda	-12.1675
▁allamuchy	-12.1675
▁allan	-12.1675
▁allana	-12.1675
▁allanite	-12.1675
▁allanson	-12.1675
▁allantoic	-12.1675
▁allantoid	-12.1675
▁allantoin	-12.1675
▁allantois	-12.1675
▁allard	-12.1675
▁allardt	-12.1675
▁allare	-12.1675
▁allargando	-12.1675
▁allative	-12.1675
▁allay	-12.1675
▁allayed	-12.1675
▁allaying	-12.1675
▁allayne	-12.1675
▁allays	-12.1675
▁allbee	-12.1675
▁allcot	-12.1675
▁alledonia	-12.1675
▁allee	-12.1675
▁alleen	-12.1675
▁alleene	-12.1675
▁allees	-12.1675
▁allegan	-12.1675
▁allegany	-12.1675
▁allegation	-12.1675
▁allegations	-12.1675
▁allege	-12.1675
▁allegeable	-12.1675
▁alleged	-12.1675
▁allegedly	-12.1675
▁alleger	-12.1675
▁allegers	-12.1675
▁alleges	-12.1675
▁alleghanian	-12.1675
▁alleghanies	-12.1675
▁alleghany	-12.1675
▁alleghenies	-12.1675
▁allegheny	-12.1675
▁allegiance	-12.1675
▁allegiances	-12.1675
▁allegiant	-12.1675
▁alleging	-12.1675
▁allegoric	-12.1675
▁allegorical	-12.1675
▁allegorically	-12.1675
▁allegories	-12.1675
▁allegorist	-12.1675
▁allegorists	-12.1675
▁allegorization	-12.1675
▁allegorizations	-12.1675
▁allegorize	-12.1675
▁allegorizer	-12.1675
▁allegorizers	-12.1675
▁allegory	-12.1675
▁allegre	-12.1675
▁allegretto	-12.1675
▁allegrettos	-12.1675
▁allegri	-12.1675
▁allegro	-12.1675
▁allegros	-12.1675
▁allele	-12.1675
▁alleles	-12.1675
▁allelic	-12.1675
▁allelomorph	-12.1675
▁allelomorphs	-12.1675
▁allelopathic	-12.1675
▁allelopathies	-12.1675
▁allelopathy	-12.1675
▁alleluia	-12.1675
▁alleluias	-12.1675
▁alleman	-12.1675
▁allemande	-12.1675
▁allen	-12.1675
▁allenby	-12.1675
▁allendale	-12.1675
▁allendorf	-12.1675
▁allene	-12.1675
▁allenhurst	-12.1675
▁allenport	-12.1675
▁allensville	-12.1675
▁allenton	-12.1675
▁allentown	-12.1675
▁allenwood	-12.1675
▁alleras	-12.1675
▁allergen	-12.1675
▁allergenic	-12.1675
▁allergenicities	-12.1675
▁allergenicity	-12.1675
▁allergens	-12.1675
▁allergic	-12.1675
▁allergically	-12.1675
▁allergies	-12.1675
▁allergist	-12.1675
▁allergists	-12.1675
▁allergology	-12.1675
▁allergy	-12.1675
▁allerie	-12.1675
▁alleris	-12.1675
▁allerton	-12.1675
▁allerus	-12.1675
▁allethrin	-12.1675
▁alleviate	-12.1675
▁alleviated	-12.1675
▁alleviates	-12.1675
▁alleviating	-12.1675
▁alleviation	-12.1675
▁alleviations	-12.1675
▁alleviative	-12.1675
▁alleviator	-12.1675
▁alleviators	-12.1675
▁alley	-12.1675
▁alleyn	-12.1675
▁alleyne	-12.1675
▁alleys	-12.1675
▁alleyway	-12.1675
▁alleyways	-12.1675
▁allgood	-12.1675
▁allhallowmas	-12.1675
▁allhallowtide	-12.1675
▁allheal	-12.1675
▁allheals	-12.1675
▁alli	-12.1675
▁alliaceae	-12.1675
▁alliaceous	-12.1675
▁alliance	-12.1675
▁alliances	-12.1675
▁allianora	-12.1675
▁alliaria	-12.1675
▁alliber	-12.1675
▁allicin	-12.1675
▁allied	-12.1675
▁allier	-12.1675
▁allies	-12.1675
▁alligator	-12.1675
▁alligatored	-12.1675
▁alligatorfish	-12.1675
▁alligatoridae	-12.1675
▁alligators	-12.1675
▁allin	-12.1675
▁allina	-12.1675
▁allingham	-12.1675
▁allionia	-12.1675
▁allis	-12.1675
▁allisan	-12.1675
▁allissa	-12.1675
▁allista	-12.1675
▁allister	-12.1675
▁allistir	-12.1675
▁alliterate	-12.1675
▁alliterated	-12.1675
▁alliterates	-12.1675
▁alliterating	-12.1675
▁alliteration	-12.1675
▁alliterations	-12.1675
▁alliterative	-12.1675
▁alliteratively	-12.1675
▁alliterativeness	-12.1675
▁alliterativenesses	-12.1675
▁alliterator	-12.1675
▁allium	-12.1675
▁alliums	-12.1675
▁allix	-12.1675
▁allmon	-12.1675
▁allness	-12.1675
▁alloa	-12.1675
▁allocable	-12.1675
▁allocatable	-12.1675
▁allocate	-12.1675
▁allocated	-12.1675
▁allocates	-12.1675
▁allocating	-12.1675
▁allocation	-12.1675
▁allocations	-12.1675
▁allocator	-12.1675
▁allocators	-12.1675
▁allochronic	-12.1675
▁allochthonous	-12.1675
▁allock	-12.1675
▁allocution	-12.1675
▁allocutions	-12.1675
▁allod	-12.1675
▁allodia	-12.1675
▁allodial	-12.1675
▁allodium	-12.1675
▁allods	-12.1675
▁allogamous	-12.1675
▁allogamy	-12.1675
▁allogeneic	-12.1675
▁allogenic	-12.1675
▁allograft	-12.1675
▁allograph	-12.1675
▁allographic	-12.1675
▁allomerism	-12.1675
▁allomerous	-12.1675
▁allometric	-12.1675
▁allometry	-12.1675
▁allomorph	-12.1675
▁allomorphic	-12.1675
▁allomorphism	-12.1675
▁allomorphisms	-12.1675
▁allomorphs	-12.1675
▁allonge	-12.1675
▁allons	-12.1675
▁allonym	-12.1675
▁allopath	-12.1675
▁allopathic	-12.1675
▁allopathies	-12.1675
▁allopathist	-12.1675
▁allopathists	-12.1675
▁allopaths	-12.1675
▁allopathy	-12.1675
▁allopatric	-12.1675
▁allopatry	-12.1675
▁allophane	-12.1675
▁allophone	-12.1675
▁allophones	-12.1675
▁allophonic	-12.1675
▁alloplasm	-12.1675
▁allopurinol	-12.1675
▁allosaur	-12.1675
▁allosaurus	-12.1675
▁allot	-12.1675
▁allotment	-12.1675
▁allotments	-12.1675
▁allotrope	-12.1675
▁allotropes	-12.1675
▁allotropic	-12.1675
▁allotropical	-12.1675
▁allotropies	-12.1675
▁allotropy	-12.1675
▁allots	-12.1675
▁allotted	-12.1675
▁allottee	-12.1675
▁allottees	-12.1675
▁allotter	-12.1675
▁allotters	-12.1675
▁allotting	-12.1675
▁allouez	-12.1675
▁allover	-12.1675
▁allow	-12.1675
▁allowable	-12.1675
▁allowably	-12.1675
▁allowance	-12.1675
▁allowances	-12.1675
▁alloway	-12.1675
▁allowed	-12.1675
▁allowedly	-12.1675
▁allowing	-12.1675
▁allows	-12.1675
▁alloxan	-12.1675
▁alloxuraemia	-12.1675
▁alloy	-12.1675
▁alloyed	-12.1675
▁alloying	-12.1675
▁alloys	-12.1675
▁allport	-12.1675
▁allred	-12.1675
▁allrud	-12.1675
▁allseed	-12.1675
▁allseeds	-12.1675
▁allsopp	-12.1675
▁allspice	-12.1675
▁allspices	-12.1675
▁allsun	-12.1675
▁allude	-12.1675
▁alluded	-12.1675
▁alludes	-12.1675
▁alluding	-12.1675
▁allure	-12.1675
▁allured	-12.1675
▁allurement	-12.1675
▁allurements	-12.1675
▁allures	-12.1675
▁alluring	-12.1675
▁alluringly	-12.1675
▁allurings	-12.1675
▁allus	-12.1675
▁allusion	-12.1675
▁allusions	-12.1675
▁allusive	-12.1675
▁allusively	-12.1675
▁allusiveness	-12.1675
▁alluvial	-12.1675
▁alluvion	-12.1675
▁alluvions	-12.1675
▁alluvium	-12.1675
▁alluviums	-12.1675
▁allveta	-12.1675
▁allwein	-12.1675
▁allx	-12.1675
▁ally	-12.1675
▁allyce	-12.1675
▁allying	-12.1675
▁allyl	-12.1675
▁allylic	-12.1675
▁allyls	-12.1675
▁allyn	-12.1675
▁allys	-12.1675
▁allysa	-12.1675
▁almagest	-12.1675
▁almaine	-12.1675
▁almallah	-12.1675
▁almanac	-12.1675
▁almanack	-12.1675
▁almanacks	-12.1675
▁almanacs	-12.1675
▁almandine	-12.1675
▁almandite	-12.1675
▁almandites	-12.1675
▁almaty	-12.1675
▁almeda	-12.1675
▁almeeta	-12.1675
▁almeida	-12.1675
▁almemar	-12.1675
▁almena	-12.1675
▁almeria	-12.1675
▁almeta	-12.1675
▁almightily	-12.1675
▁almightiness	-12.1675
▁almightinesses	-12.1675
▁almighty	-12.1675
▁almira	-12.1675
▁almirah	-12.1675
▁almirahs	-12.1675
▁almire	-12.1675
▁almita	-12.1675
▁almo	-12.1675
▁almond	-12.1675
▁almonds	-12.1675
▁almoner	-12.1675
▁almoners	-12.1675
▁almonries	-12.1675
▁almonry	-12.1675
▁almont	-12.1675
▁almoravid	-12.1675
▁almost	-12.1675
▁alms	-12.1675
▁almsgiver	-12.1675
▁almsgivers	-12.1675
▁almshouse	-12.1675
▁almshouses	-12.1675
▁almsman	-12.1675
▁almswoman	-12.1675
▁almucantar	-12.1675
▁almuce	-12.1675
▁almund	-12.1675
▁almyra	-12.1675
▁alna	-12.1675
▁alnico	-12.1675
▁alnus	-12.1675
▁alo	-12.1675
▁alocasia	-12.1675
▁alodee	-12.1675
▁alodi	-12.1675
▁alodie	-12.1675
▁alodium	-12.1675
▁aloe	-12.1675
▁aloeaceae	-12.1675
▁aloes	-12.1675
▁aloeswood	-12.1675
▁aloft	-12.1675
▁alogical	-12.1675
▁aloha	-12.1675
▁alohas	-12.1675
▁aloin	-12.1675
▁aloise	-12.1675
▁aloisia	-12.1675
▁aloisius	-12.1675
▁aloke	-12.1675
▁alon	-12.1675
▁alone	-12.1675
▁aloneness	-12.1675
▁alonenesses	-12.1675
▁along	-12.1675
▁alongshore	-12.1675
▁alongside	-12.1675
▁alonso	-12.1675
▁aloo	-12.1675
▁aloof	-12.1675
▁aloofly	-12.1675
▁aloofness	-12.1675
▁alopecia	-12.1675
▁alopecias	-12.1675
▁alopecic	-12.1675
▁alopecurus	-12.1675
▁alopex	-12.1675
▁alopiidae	-12.1675
▁alopius	-12.1675
▁alosa	-12.1675
▁alost	-12.1675
▁alouatta	-12.1675
▁aloud	-12.1675
▁alow	-12.1675
▁aloysia	-12.1675
▁aloysius	-12.1675
▁alp	-12.1675
▁alpaca	-12.1675
▁alpacas	-12.1675
▁alpargata	-12.1675
▁alpaugh	-12.1675
▁alpena	-12.1675
▁alpenglow	-12.1675
▁alpenhorn	-12.1675
▁alpenhorns	-12.1675
▁alpenstock	-12.1675
▁alper	-12.1675
▁alpers	-12.1675
▁alpestrine	-12.1675
▁alpha	-12.1675
▁alphabet	-12.1675
▁alphabeted	-12.1675
▁alphabetic	-12.1675
▁alphabetical	-12.1675
▁alphabetically	-12.1675
▁alphabeting	-12.1675
▁alphabetization	-12.1675
▁alphabetize	-12.1675
▁alphabetized	-12.1675
▁alphabetizer	-12.1675
▁alphabetizes	-12.1675
▁alphabetizing	-12.1675
▁alphabets	-12.1675
▁alphameric	-12.1675
▁alphanumeric	-12.1675
▁alphanumerical	-12.1675
▁alphanumerically	-12.1675
▁alphanumerics	-12.1675
▁alpharetta	-12.1675
▁alphas	-12.1675
▁alphavirus	-12.1675
▁alpheus	-12.1675
▁alphitomancy	-12.1675
▁alphonsa	-12.1675
▁alphonsine	-12.1675
▁alphonsus	-12.1675
▁alphorn	-12.1675
▁alphorns	-12.1675
▁alphosis	-12.1675
▁alpine	-12.1675
▁alpines	-12.1675
▁alpini	-12.1675
▁alpinia	-12.1675
▁alpinism	-12.1675
▁alpinist	-12.1675
▁alpinists	-12.1675
▁alpino	-12.1675
▁alpoca	-12.1675
▁alprazolam	-12.1675
▁alps	-12.1675
▁already	-12.1675
▁alric	-12.1675
▁alrich	-12.1675
▁alrick	-12.1675
▁alright	-12.1675
▁alroi	-12.1675
▁alroy	-12.1675
▁alrzc	-12.1675
▁alsace	-12.1675
▁alsatia	-12.1675
▁alsatian	-12.1675
▁alsea	-12.1675
▁alsen	-12.1675
▁alsey	-12.1675
▁alsike	-12.1675
▁alsikes	-12.1675
▁also	-12.1675
▁alsobia	-12.1675
▁alsophila	-12.1675
▁alstead	-12.1675
▁alstonia	-12.1675
▁alstroemeria	-12.1675
▁alstroemeriaceae	-12.1675
▁alsworth	-12.1675
▁alta	-12.1675
▁altadena	-12.1675
▁altaf	-12.1675
▁altaic	-12.1675
▁altair	-12.1675
▁altaloma	-12.1675
▁altamahaw	-12.1675
▁altamont	-12.1675
▁altar	-12.1675
▁altarpiece	-12.1675
▁altarpieces	-12.1675
▁altars	-12.1675
▁altazimuth	-12.1675
▁altdorf	-12.1675
▁altdorfer	-12.1675
▁alten	-12.1675
▁altenburg	-12.1675
▁alter	-12.1675
▁alterability	-12.1675
▁alterable	-12.1675
▁alterant	-12.1675
▁alteration	-12.1675
▁alterations	-12.1675
▁alterative	-12.1675
▁altercate	-12.1675
▁altercated	-12.1675
▁altercates	-12.1675
▁altercating	-12.1675
▁altercation	-12.1675
▁altercations	-12.1675
▁altered	-12.1675
▁altering	-12.1675
▁alterity	-12.1675
▁alternant	-12.1675
▁alternanthera	-12.1675
▁alternate	-12.1675
▁alternated	-12.1675
▁alternately	-12.1675
▁alternates	-12.1675
▁alternating	-12.1675
▁alternation	-12.1675
▁alternations	-12.1675
▁alternative	-12.1675
▁alternatively	-12.1675
▁alternatives	-12.1675
▁alternator	-12.1675
▁alternators	-12.1675
▁alternise	-12.1675
▁alternize	-12.1675
▁alters	-12.1675
▁altha	-12.1675
▁althaea	-12.1675
▁althaeas	-12.1675
▁althaein	-12.1675
▁althea	-12.1675
▁altheas	-12.1675
▁althee	-12.1675
▁altheimer	-12.1675
▁altheta	-12.1675
▁althing	-12.1675
▁althorn	-12.1675
▁althorns	-12.1675
▁although	-12.1675
▁altigraph	-12.1675
▁altimeter	-12.1675
▁altimeters	-12.1675
▁altimetries	-12.1675
▁altimetry	-12.1675
▁altiplano	-12.1675
▁altiplanos	-12.1675
▁altis	-12.1675
▁altissimo	-12.1675
▁altitude	-12.1675
▁altitudes	-12.1675
▁altitudinal	-12.1675
▁altitudinous	-12.1675
▁altmar	-12.1675
▁alto	-12.1675
▁altocumulus	-12.1675
▁altogether	-12.1675
▁altona	-12.1675
▁altoona	-12.1675
▁altos	-12.1675
▁altostratus	-12.1675
▁altricial	-12.1675
▁altrincham	-12.1675
▁altro	-12.1675
▁altruism	-12.1675
▁altruist	-12.1675
▁altruistic	-12.1675
▁altruistically	-12.1675
▁altruists	-12.1675
▁alts	-12.1675
▁altura	-12.1675
▁alturas	-12.1675
▁altus	-12.1675
▁alu	-12.1675
▁aludel	-12.1675
▁aludels	-12.1675
▁aluin	-12.1675
▁aluino	-12.1675
▁alula	-12.1675
▁alulae	-12.1675
▁alular	-12.1675
▁alum	-12.1675
▁alumbank	-12.1675
▁alumina	-12.1675
▁aluminate	-12.1675
▁aluminiferous	-12.1675
▁aluminise	-12.1675
▁aluminium	-12.1675
▁aluminiums	-12.1675
▁aluminize	-12.1675
▁aluminothermy	-12.1675
▁aluminous	-12.1675
▁aluminum	-12.1675
▁aluminums	-12.1675
▁alumna	-12.1675
▁alumnae	-12.1675
▁alumni	-12.1675
▁alumnus	-12.1675
▁alumroot	-12.1675
▁alums	-12.1675
▁alundum	-12.1675
▁alunite	-12.1675
▁alurd	-12.1675
▁alurta	-12.1675
▁alus	-12.1675
▁alvada	-12.1675
▁alvadore	-12.1675
▁alvah	-12.1675
▁alvan	-12.1675
▁alvar	-12.1675
▁alvaton	-12.1675
▁alveolae	-12.1675
▁alveolar	-12.1675
▁alveolars	-12.1675
▁alveolate	-12.1675
▁alveole	-12.1675
▁alveoli	-12.1675
▁alveolitis	-12.1675
▁alveolus	-12.1675
▁alver	-12.1675
▁alvera	-12.1675
▁alverda	-12.1675
▁alverson	-12.1675
▁alverta	-12.1675
▁alverton	-12.1675
▁alves	-12.1675
▁alveta	-12.1675
▁alviani	-12.1675
▁alvie	-12.1675
▁alvina	-12.1675
▁alvine	-12.1675
▁alvinia	-12.1675
▁alvira	-12.1675
▁alvis	-12.1675
▁alviso	-12.1675
▁alvita	-12.1675
▁alvo	-12.1675
▁alvord	-12.1675
▁alvordton	-12.1675
▁alvy	-12.1675
▁alway	-12.1675
▁always	-12.1675
▁alwin	-12.1675
▁alwitt	-12.1675
▁alwyn	-12.1675
▁alyda	-12.1675
▁alyose	-12.1675
▁alyosha	-12.1675
▁alys	-12.1675
▁alysa	-12.1675
▁alyse	-12.1675
▁alysia	-12.1675
▁alysoun	-12.1675
▁alyss	-12.1675
▁alyssum	-12.1675
▁alyssums	-12.1675
▁alytes	-12.1675
▁alyworth	-12.1675
▁alzada	-12.1675
▁am	-12.1675
▁ama	-12.1675
▁amabel	-12.1675
▁amabelle	-12.1675
▁amabil	-12.1675
▁amadas	-12.1675
▁amadavat	-12.1675
▁amadavats	-12.1675
▁amadeo	-12.1675
▁amadis	-12.1675
▁amador	-12.1675
▁amadou	-12.1675
▁amadus	-12.1675
▁amaethon	-12.1675
▁amagansett	-12.1675
▁amagasaki	-12.1675
▁amagon	-12.1675
▁amah	-12.1675
▁amahs	-12.1675
▁amain	-12.1675
▁amakhosi	-12.1675
▁amal	-12.1675
▁amalbena	-12.1675
▁amalberga	-12.1675
▁amalbergas	-12.1675
▁amalburga	-12.1675
▁amalea	-12.1675
▁amalee	-12.1675
▁amalekite	-12.1675
▁amaleta	-12.1675
▁amalgam	-12.1675
▁amalgamate	-12.1675
▁amalgamated	-12.1675
▁amalgamates	-12.1675
▁amalgamating	-12.1675
▁amalgamation	-12.1675
▁amalgamations	-12.1675
▁amalgamatise	-12.1675
▁amalgamative	-12.1675
▁amalgamatize	-12.1675
▁amalgamator	-12.1675
▁amalgamisation	-12.1675
▁amalgamise	-12.1675
▁amalgamization	-12.1675
▁amalgamize	-12.1675
▁amalgams	-12.1675
▁amalie	-12.1675
▁amalita	-12.1675
▁amalle	-12.1675
▁aman	-12.1675
▁amana	-12.1675
▁amand	-12.1675
▁amandi	-12.1675
▁amandie	-12.1675
▁amandine	-12.1675
▁amandines	-12.1675
▁amando	-12.1675
▁amandy	-12.1675
▁amanita	-12.1675
▁amann	-12.1675
▁amanuenses	-12.1675
▁amanuensis	-12.1675
▁amar	-12.1675
▁amara	-12.1675
▁amaral	-12.1675
▁amarantaceae	-12.1675
▁amaranth	-12.1675
▁amaranthaceae	-12.1675
▁amaranthaceous	-12.1675
▁amaranthine	-12.1675
▁amaranths	-12.1675
▁amaranthus	-12.1675
▁amarantus	-12.1675
▁amaras	-12.1675
▁amarelle	-12.1675
▁amarette	-12.1675
▁amaretti	-12.1675
▁amaretto	-12.1675
▁amarettos	-12.1675
▁amargo	-12.1675
▁amari	-12.1675
▁amarillas	-12.1675
▁amarillis	-12.1675
▁amarillo	-12.1675
▁amaris	-12.1675
▁amary	-12.1675
▁amaryl	-12.1675
▁amaryllidaceae	-12.1675
▁amaryllidaceous	-12.1675
▁amaryllis	-12.1675
▁amaryllises	-12.1675
▁amasa	-12.1675
▁amass	-12.1675
▁amassed	-12.1675
▁amasser	-12.1675
▁amassers	-12.1675
▁amasses	-12.1675
▁amassing	-12.1675
▁amassment	-12.1675
▁amassments	-12.1675
▁amastia	-12.1675
▁amata	-12.1675
▁amaterasu	-12.1675
▁amateur	-12.1675
▁amateurish	-12.1675
▁amateurishly	-12.1675
▁amateurishness	-12.1675
▁amateurism	-12.1675
▁amateurs	-12.1675
▁amathist	-12.1675
▁amathiste	-12.1675
▁amati	-12.1675
▁amatis	-12.1675
▁amative	-12.1675
▁amatively	-12.1675
▁amativeness	-12.1675
▁amativenesses	-12.1675
▁amato	-12.1675
▁amatol	-12.1675
▁amatory	-12.1675
▁amatruda	-12.1675
▁amatuer	-12.1675
▁amaty	-12.1675
▁amauropelta	-12.1675
▁amaurosis	-12.1675
▁amaurotic	-12.1675
▁amawalk	-12.1675
▁amaze	-12.1675
▁amazed	-12.1675
▁amazedly	-12.1675
▁amazement	-12.1675
▁amazes	-12.1675
▁amazing	-12.1675
▁amazingly	-12.1675
▁amazon	-12.1675
▁amazona	-12.1675
▁amazonas	-12.1675
▁amazonflodens	-12.1675
▁amazonia	-12.1675
▁amazonian	-12.1675
▁amazonite	-12.1675
▁amazons	-12.1675
▁ambages	-12.1675
▁ambagious	-12.1675
▁ambala	-12.1675
▁ambary	-12.1675
▁ambassador	-12.1675
▁ambassadorial	-12.1675
▁ambassadors	-12.1675
▁ambassadorship	-12.1675
▁ambassadorships	-12.1675
▁ambassadress	-12.1675
▁ambassadresses	-12.1675
▁ambatch	-12.1675
▁ambatches	-12.1675
▁amber	-12.1675
▁amberboa	-12.1675
▁amberg	-12.1675
▁ambergriese	-12.1675
▁ambergris	-12.1675
▁amberjack	-12.1675
▁amberly	-12.1675
▁amberoid	-12.1675
▁ambers	-12.1675
▁amberson	-12.1675
▁ambert	-12.1675
▁ambia	-12.1675
▁ambiance	-12.1675
▁ambiances	-12.1675
▁ambicolourate	-12.1675
▁ambicolouration	-12.1675
▁ambidexter	-12.1675
▁ambidexterity	-12.1675
▁ambidextrous	-12.1675
▁ambidextrously	-12.1675
▁ambie	-12.1675
▁ambience	-12.1675
▁ambiences	-12.1675
▁ambient	-12.1675
▁ambiguities	-12.1675
▁ambiguity	-12.1675
▁ambiguous	-12.1675
▁ambiguously	-12.1675
▁ambilaevous	-12.1675
▁ambisonic	-12.1675
▁ambit	-12.1675
▁ambitendency	-12.1675
▁ambition	-12.1675
▁ambitions	-12.1675
▁ambitious	-12.1675
▁ambitiously	-12.1675
▁ambitiousness	-12.1675
▁ambits	-12.1675
▁ambivalence	-12.1675
▁ambivalent	-12.1675
▁ambivalently	-12.1675
▁ambiversion	-12.1675
▁ambiversive	-12.1675
▁ambivert	-12.1675
▁ambiverts	-12.1675
▁amble	-12.1675
▁ambled	-12.1675
▁ambler	-12.1675
▁amblers	-12.1675
▁ambles	-12.1675
▁ambling	-12.1675
▁ambloplites	-12.1675
▁amblygonite	-12.1675
▁amblyopia	-12.1675
▁amblyopic	-12.1675
▁amblyopsis	-12.1675
▁amblyoscope	-12.1675
▁amblyrhynchus	-12.1675
▁amblystoma	-12.1675
▁ambo	-12.1675
▁amboceptor	-12.1675
▁amboina	-12.1675
▁amboise	-12.1675
▁ambones	-12.1675
▁ambos	-12.1675
▁amboy	-12.1675
▁amboyna	-12.1675
▁ambries	-12.1675
▁ambrogino	-12.1675
▁ambrogio	-12.1675
▁ambroid	-12.1675
▁ambros	-12.1675
▁ambrosane	-12.1675
▁ambrose	-12.1675
▁ambrosi	-12.1675
▁ambrosia	-12.1675
▁ambrosiaceae	-12.1675
▁ambrosial	-12.1675
▁ambrosian	-12.1675
▁ambrosine	-12.1675
▁ambrosio	-12.1675
▁ambrosius	-12.1675
▁ambrotype	-12.1675
▁ambry	-12.1675
▁ambsace	-12.1675
▁ambulacra	-12.1675
▁ambulacral	-12.1675
▁ambulacrum	-12.1675
▁ambulance	-12.1675
▁ambulanceman	-12.1675
▁ambulancemen	-12.1675
▁ambulances	-12.1675
▁ambulancewoman	-12.1675
▁ambulancewomen	-12.1675
▁ambulant	-12.1675
▁ambulants	-12.1675
▁ambulate	-12.1675
▁ambulated	-12.1675
▁ambulates	-12.1675
▁ambulating	-12.1675
▁ambulation	-12.1675
▁ambulations	-12.1675
▁ambulator	-12.1675
▁ambulatories	-12.1675
▁ambulators	-12.1675
▁ambulatory	-12.1675
▁ambur	-12.1675
▁amburgey	-12.1675
▁ambuscade	-12.1675
▁ambuscaded	-12.1675
▁ambuscader	-12.1675
▁ambuscaders	-12.1675
▁ambuscades	-12.1675
▁ambuscading	-12.1675
▁ambush	-12.1675
▁ambushed	-12.1675
▁ambusher	-12.1675
▁ambushers	-12.1675
▁ambushes	-12.1675
▁ambushing	-12.1675
▁amby	-12.1675
▁ambystoma	-12.1675
▁ambystomatidae	-12.1675
▁ambystomid	-12.1675
▁ame	-12.1675
▁ameagle	-12.1675
▁ameba	-12.1675
▁amebae	-12.1675
▁ameban	-12.1675
▁amebas	-12.1675
▁amebean	-12.1675
▁amebiases	-12.1675
▁amebiasis	-12.1675
▁amebic	-12.1675
▁amebiform	-12.1675
▁amebocytes	-12.1675
▁ameboid	-12.1675
▁amedeo	-12.1675
▁ameer	-12.1675
▁ameiuridae	-12.1675
▁ameiurus	-12.1675
▁amelanchier	-12.1675
▁amelia	-12.1675
▁amelie	-12.1675
▁amelina	-12.1675
▁ameline	-12.1675
▁ameliorate	-12.1675
▁ameliorated	-12.1675
▁ameliorates	-12.1675
▁ameliorating	-12.1675
▁amelioration	-12.1675
▁ameliorative	-12.1675
▁ameliorator	-12.1675
▁ameliorators	-12.1675
▁amelita	-12.1675
▁ameloblast	-12.1675
▁amelogenesis	-12.1675
▁amen	-12.1675
▁amena	-12.1675
▁amenability	-12.1675
▁amenable	-12.1675
▁amenableness	-12.1675
▁amenablenesses	-12.1675
▁amenably	-12.1675
▁amend	-12.1675
▁amendable	-12.1675
▁amendatory	-12.1675
▁amended	-12.1675
▁amender	-12.1675
▁amenders	-12.1675
▁amending	-12.1675
▁amendment	-12.1675
▁amendments	-12.1675
▁amends	-12.1675
▁amened	-12.1675
▁amenia	-12.1675
▁amening	-12.1675
▁amenities	-12.1675
▁amenity	-12.1675
▁amenorrhea	-12.1675
▁amenorrheal	-12.1675
▁amenorrheic	-12.1675
▁amenorrhoeal	-12.1675
▁amens	-12.1675
▁ament	-12.1675
▁amentia	-12.1675
▁amentiferae	-12.1675
▁amentiferous	-12.1675
▁aments	-12.1675
▁amerce	-12.1675
▁amerced	-12.1675
▁amercement	-12.1675
▁amercements	-12.1675
▁amerces	-12.1675
▁amerciable	-12.1675
▁amercing	-12.1675
▁america	-12.1675
▁american	-12.1675
▁americana	-12.1675
▁americanese	-12.1675
▁americanised	-12.1675
▁americanism	-12.1675
▁americanist	-12.1675
▁americanization	-12.1675
▁americanize	-12.1675
▁americanized	-12.1675
▁americanness	-12.1675
▁americannesses	-12.1675
▁americano	-12.1675
▁americans	-12.1675
▁americas	-12.1675
▁americium	-12.1675
▁americus	-12.1675
▁amerigo	-12.1675
▁amerind	-12.1675
▁amerindian	-12.1675
▁amero	-12.1675
▁amersfoort	-12.1675
▁amersham	-12.1675
▁amery	-12.1675
▁ames	-12.1675
▁amesace	-12.1675
▁amesbury	-12.1675
▁amesville	-12.1675
▁ametabola	-12.1675
▁ametabolic	-12.1675
▁amethist	-12.1675
▁amethyst	-12.1675
▁amethystine	-12.1675
▁amethysts	-12.1675
▁ametria	-12.1675
▁ametropia	-12.1675
▁ametropic	-12.1675
▁amex	-12.1675
▁amhara	-12.1675
▁amharic	-12.1675
▁amherstdale	-12.1675
▁ami	-12.1675
▁amia	-12.1675
▁amiability	-12.1675
▁amiable	-12.1675
▁amiableness	-12.1675
▁amiablenesses	-12.1675
▁amiably	-12.1675
▁amianthum	-12.1675
▁amianthus	-12.1675
▁amias	-12.1675
▁amicability	-12.1675
▁amicable	-12.1675
▁amicably	-12.1675
▁amice	-12.1675
▁amices	-12.1675
▁amici	-12.1675
▁amick	-12.1675
▁amicus	-12.1675
▁amid	-12.1675
▁amidase	-12.1675
▁amide	-12.1675
▁amides	-12.1675
▁amidol	-12.1675
▁amidon	-12.1675
▁amids	-12.1675
▁amidship	-12.1675
▁amidships	-12.1675
▁amidst	-12.1675
▁amie	-12.1675
▁amiel	-12.1675
▁amiens	-12.1675
▁amieva	-12.1675
▁amigo	-12.1675
▁amigos	-12.1675
▁amii	-12.1675
▁amiidae	-12.1675
▁amil	-12.1675
▁amimia	-12.1675
▁amin	-12.1675
▁amine	-12.1675
▁amines	-12.1675
▁amino	-12.1675
▁aminoaciduria	-12.1675
▁aminomethane	-12.1675
▁aminophylline	-12.1675
▁aminoplast	-12.1675
▁aminopyrine	-12.1675
▁aminos	-12.1675
▁aminta	-12.1675
▁amiodarone	-12.1675
▁amir	-12.1675
▁amiret	-12.1675
▁amirs	-12.1675
▁amis	-12.1675
▁amish	-12.1675
▁amiss	-12.1675
▁amissville	-12.1675
▁amistad	-12.1675
▁amite	-12.1675
▁amitie	-12.1675
▁amitosis	-12.1675
▁amitotic	-12.1675
▁amitriptyline	-12.1675
▁amittai	-12.1675
▁amity	-12.1675
▁amityville	-12.1675
▁amlin	-12.1675
▁amling	-12.1675
▁amma	-12.1675
▁ammadas	-12.1675
▁ammadis	-12.1675
▁ammamaria	-12.1675
▁amman	-12.1675
▁ammann	-12.1675
▁ammas	-12.1675
▁ammeter	-12.1675
▁ammeters	-12.1675
▁ammine	-12.1675
▁ammino	-12.1675
▁ammo	-12.1675
▁ammobium	-12.1675
▁ammocete	-12.1675
▁ammocetes	-12.1675
▁ammocoete	-12.1675
▁ammocoetes	-12.1675
▁ammodytes	-12.1675
▁ammodytidae	-12.1675
▁ammon	-12.1675
▁ammonal	-12.1675
▁ammonate	-12.1675
▁ammonia	-12.1675
▁ammoniac	-12.1675
▁ammoniacal	-12.1675
▁ammoniaemia	-12.1675
▁ammoniate	-12.1675
▁ammoniated	-12.1675
▁ammonic	-12.1675
▁ammonification	-12.1675
▁ammonify	-12.1675
▁ammonite	-12.1675
▁ammonites	-12.1675
▁ammonitic	-12.1675
▁ammonium	-12.1675
▁ammoniums	-12.1675
▁ammoniuria	-12.1675
▁ammonoid	-12.1675
▁ammonoids	-12.1675
▁ammotragus	-12.1675
▁ammunition	-12.1675
▁amnesia	-12.1675
▁amnesiac	-12.1675
▁amnesiacs	-12.1675
▁amnesic	-12.1675
▁amnesics	-12.1675
▁amnestic	-12.1675
▁amnestied	-12.1675
▁amnesties	-12.1675
▁amnesty	-12.1675
▁amnestying	-12.1675
▁amnia	-12.1675
▁amnio	-12.1675
▁amniocenteses	-12.1675
▁amniocentesis	-12.1675
▁amnion	-12.1675
▁amnionic	-12.1675
▁amnions	-12.1675
▁amnios	-12.1675
▁amniota	-12.1675
▁amniote	-12.1675
▁amniotes	-12.1675
▁amniotic	-12.1675
▁amo	-12.1675
▁amoakuh	-12.1675
▁amobarbital	-12.1675
▁amoeba	-12.1675
▁amoebae	-12.1675
▁amoebaean	-12.1675
▁amoeban	-12.1675
▁amoebas	-12.1675
▁amoebean	-12.1675
▁amoebian	-12.1675
▁amoebiases	-12.1675
▁amoebiasis	-12.1675
▁amoebic	-12.1675
▁amoebicidal	-12.1675
▁amoebicide	-12.1675
▁amoebid	-12.1675
▁amoebida	-12.1675
▁amoebiform	-12.1675
▁amoebiosis	-12.1675
▁amoebocytes	-12.1675
▁amoeboid	-12.1675
▁amoeboidism	-12.1675
▁amoebous	-12.1675
▁amoebula	-12.1675
▁amok	-12.1675
▁amon	-12.1675
▁amonate	-12.1675
▁among	-12.1675
▁amongst	-12.1675
▁amontillado	-12.1675
▁amontillados	-12.1675
▁amor	-12.1675
▁amora	-12.1675
▁amoral	-12.1675
▁amoralise	-12.1675
▁amoralism	-12.1675
▁amoralisms	-12.1675
▁amoralist	-12.1675
▁amoralists	-12.1675
▁amorality	-12.1675
▁amoralize	-12.1675
▁amorally	-12.1675
▁amoret	-12.1675
▁amoreta	-12.1675
▁amorete	-12.1675
▁amorette	-12.1675
▁amoretti	-12.1675
▁amoretto	-12.1675
▁amorino	-12.1675
▁amorism	-12.1675
▁amorist	-12.1675
▁amoristic	-12.1675
▁amorists	-12.1675
▁amorita	-12.1675
▁amoritta	-12.1675
▁amoroso	-12.1675
▁amorous	-12.1675
▁amorously	-12.1675
▁amorousness	-12.1675
▁amorpha	-12.1675
▁amorphism	-12.1675
▁amorphophallus	-12.1675
▁amorphous	-12.1675
▁amorphously	-12.1675
▁amorphousness	-12.1675
▁amort	-12.1675
▁amortisable	-12.1675
▁amortisation	-12.1675
▁amortisations	-12.1675
▁amortise	-12.1675
▁amortised	-12.1675
▁amortises	-12.1675
▁amortising	-12.1675
▁amortizable	-12.1675
▁amortization	-12.1675
▁amortizations	-12.1675
▁amortize	-12.1675
▁amortized	-12.1675
▁amortizements	-12.1675
▁amortizes	-12.1675
▁amortizing	-12.1675
▁amory	-12.1675
▁amos	-12.1675
▁amosite	-12.1675
▁amost	-12.1675
▁amount	-12.1675
▁amounted	-12.1675
▁amounting	-12.1675
▁amounts	-12.1675
▁amour	-12.1675
▁amouret	-12.1675
▁amourism	-12.1675
▁amourisms	-12.1675
▁amouristic	-12.1675
▁amours	-12.1675
▁amoxicillin	-12.1675
▁amoxicillins	-12.1675
▁amoy	-12.1675
▁amp	-12.1675
▁ampelopsis	-12.1675
▁amperage	-12.1675
▁amperages	-12.1675
▁ampere	-12.1675
▁amperes	-12.1675
▁ampersand	-12.1675
▁ampersands	-12.1675
▁ampex	-12.1675
▁amphetamine	-12.1675
▁amphetamines	-12.1675
▁amphiarthrosis	-12.1675
▁amphiaster	-12.1675
▁amphibia	-12.1675
▁amphibian	-12.1675
▁amphibians	-12.1675
▁amphibiotic	-12.1675
▁amphibious	-12.1675
▁amphibiously	-12.1675
▁amphibole	-12.1675
▁amphiboles	-12.1675
▁amphibolic	-12.1675
▁amphibolips	-12.1675
▁amphibolite	-12.1675
▁amphibology	-12.1675
▁amphibolous	-12.1675
▁amphiboly	-12.1675
▁amphibrach	-12.1675
▁amphicarpaea	-12.1675
▁amphichroic	-12.1675
▁amphicoelous	-12.1675
▁amphictyon	-12.1675
▁amphictyony	-12.1675
▁amphidiploid	-12.1675
▁amphidiploidy	-12.1675
▁amphigaean	-12.1675
▁amphigory	-12.1675
▁amphimacer	-12.1675
▁amphimixis	-12.1675
▁amphineura	-12.1675
▁amphioxidae	-12.1675
▁amphioxus	-12.1675
▁amphipod	-12.1675
▁amphipoda	-12.1675
▁amphipods	-12.1675
▁amphiprion	-12.1675
▁amphiprostylar	-12.1675
▁amphiprostyle	-12.1675
▁amphisbaena	-12.1675
▁amphisbaenidae	-12.1675
▁amphistylar	-12.1675
▁amphitheater	-12.1675
▁amphitheaters	-12.1675
▁amphitheatre	-12.1675
▁amphitheatres	-12.1675
▁amphitheatric	-12.1675
▁amphitheatrical	-12.1675
▁amphithecium	-12.1675
▁amphitrite	-12.1675
▁amphitropous	-12.1675
▁amphitryon	-12.1675
▁amphiuma	-12.1675
▁amphiumas	-12.1675
▁amphiumidae	-12.1675
▁amphora	-12.1675
▁amphorae	-12.1675
▁amphoras	-12.1675
▁amphoric	-12.1675
▁amphoteric	-12.1675
▁amphotericin	-12.1675
▁ampicillin	-12.1675
▁ampicillins	-12.1675
▁ample	-12.1675
▁ampleness	-12.1675
▁amplenesses	-12.1675
▁ampler	-12.1675
▁amplest	-12.1675
▁amplexicaul	-12.1675
▁amplexus	-12.1675
▁ampliate	-12.1675
▁amplification	-12.1675
▁amplifications	-12.1675
▁amplified	-12.1675
▁amplifier	-12.1675
▁amplifiers	-12.1675
▁amplifies	-12.1675
▁amplify	-12.1675
▁amplifying	-12.1675
▁amplitude	-12.1675
▁amplitudes	-12.1675
▁amply	-12.1675
▁ampoule	-12.1675
▁ampoules	-12.1675
▁amps	-12.1675
▁ampule	-12.1675
▁ampules	-12.1675
▁ampulla	-12.1675
▁ampullae	-12.1675
▁ampullar	-12.1675
▁amputate	-12.1675
▁amputated	-12.1675
▁amputates	-12.1675
▁amputating	-12.1675
▁amputation	-12.1675
▁amputations	-12.1675
▁amputator	-12.1675
▁amputators	-12.1675
▁amputee	-12.1675
▁amputees	-12.1675
▁amr	-12.1675
▁amrinone	-12.1675
▁amrit	-12.1675
▁amrita	-12.1675
▁amsden	-12.1675
▁amsinckia	-12.1675
▁amsonia	-12.1675
▁amsterdam	-12.1675
▁amston	-12.1675
▁amtrac	-12.1675
▁amtracs	-12.1675
▁amtrak	-12.1675
▁amtraks	-12.1675
▁amu	-12.1675
▁amuck	-12.1675
▁amulet	-12.1675
▁amulets	-12.1675
▁amun	-12.1675
▁amund	-12.1675
▁amundsen	-12.1675
▁amur	-12.1675
▁amusable	-12.1675
▁amuse	-12.1675
▁amused	-12.1675
▁amusedly	-12.1675
▁amusement	-12.1675
▁amusements	-12.1675
▁amuses	-12.1675
▁amusing	-12.1675
▁amusingly	-12.1675
▁amyas	-12.1675
▁amye	-12.1675
▁amygdala	-12.1675
▁amygdalaceae	-12.1675
▁amygdalae	-12.1675
▁amygdalate	-12.1675
▁amygdale	-12.1675
▁amygdales	-12.1675
▁amygdalin	-12.1675
▁amygdaline	-12.1675
▁amygdaloid	-12.1675
▁amygdalotomy	-12.1675
▁amygdalus	-12.1675
▁amyl	-12.1675
▁amylaceous	-12.1675
▁amylase	-12.1675
▁amylene	-12.1675
▁amyloid	-12.1675
▁amyloidosis	-12.1675
▁amylolysis	-12.1675
▁amylolytic	-12.1675
▁amylopectin	-12.1675
▁amylopsin	-12.1675
▁amylose	-12.1675
▁amylum	-12.1675
▁amyotonia	-12.1675
▁amyotrophia	-12.1675
▁amytal	-12.1675
▁amyxia	-12.1675
▁amyxorrhoea	-12.1675
▁an	-12.1675
▁ana	-12.1675
▁anabaena	-12.1675
▁anabal	-12.1675
▁anabantid	-12.1675
▁anabantidae	-12.1675
▁anabaptism	-12.1675
▁anabaptisms	-12.1675
▁anabaptist	-12.1675
▁anabaptists	-12.1675
▁anabaptize	-12.1675
▁anabaptized	-12.1675
▁anabaptizes	-12.1675
▁anabaptizing	-12.1675
▁anabas	-12.1675
▁anabases	-12.1675
▁anabasis	-12.1675
▁anabatic	-12.1675
▁anabella	-12.1675
▁anabelle	-12.1675
▁anabiosis	-12.1675
▁anabiotic	-12.1675
▁anabolic	-12.1675
▁anabolism	-12.1675
▁anabolite	-12.1675
▁anabranch	-12.1675
▁anabrus	-12.1675
▁anacanthini	-12.1675
▁anacardiaceae	-12.1675
▁anacardiaceous	-12.1675
▁anacardium	-12.1675
▁anacharsis	-12.1675
▁anachronic	-12.1675
▁anachronism	-12.1675
▁anachronisms	-12.1675
▁anachronistic	-12.1675
▁anachronistically	-12.1675
▁anachronous	-12.1675
▁anachronously	-12.1675
▁anaclinal	-12.1675
▁anaclisis	-12.1675
▁anaclitic	-12.1675
▁anacoco	-12.1675
▁anacolutha	-12.1675
▁anacoluthia	-12.1675
▁anacoluthic	-12.1675
▁anacoluthon	-12.1675
▁anacoluthons	-12.1675
▁anaconda	-12.1675
▁anacondas	-12.1675
▁anacortes	-12.1675
▁anacreontic	-12.1675
▁anacronym	-12.1675
▁anacruses	-12.1675
▁anacrusis	-12.1675
▁anacyclus	-12.1675
▁anadarko	-12.1675
▁anadem	-12.1675
▁anadenanthera	-12.1675
▁anadiplosis	-12.1675
▁anadromous	-12.1675
▁anaematosis	-12.1675
▁anaemia	-12.1675
▁anaemias	-12.1675
▁anaemic	-12.1675
▁anaeretic	-12.1675
▁anaerobe	-12.1675
▁anaerobes	-12.1675
▁anaerobic	-12.1675
▁anaerobically	-12.1675
▁anaesthesia	-12.1675
▁anaesthesiant	-12.1675
▁anaesthesias	-12.1675
▁anaesthesis	-12.1675
▁anaesthetic	-12.1675
▁anaesthetics	-12.1675
▁anaesthetise	-12.1675
▁anaesthetised	-12.1675
▁anaesthetiser	-12.1675
▁anaesthetises	-12.1675
▁anaesthetising	-12.1675
▁anaesthetist	-12.1675
▁anaesthetists	-12.1675
▁anaesthetizations	-12.1675
▁anaesthetize	-12.1675
▁anaesthetized	-12.1675
▁anaesthetizer	-12.1675
▁anaesthetizes	-12.1675
▁anaesthetizing	-12.1675
▁anaesthyl	-12.1675
▁anaetiological	-12.1675
▁anagallis	-12.1675
▁anagasta	-12.1675
▁anagen	-12.1675
▁anaglyph	-12.1675
▁anaglyphic	-12.1675
▁anaglyphs	-12.1675
▁anaglyphy	-12.1675
▁anagnorisis	-12.1675
▁anagnos	-12.1675
▁anagnost	-12.1675
▁anagoge	-12.1675
▁anagogic	-12.1675
▁anagram	-12.1675
▁anagrammatic	-12.1675
▁anagrammatical	-12.1675
▁anagrammatically	-12.1675
▁anagrams	-12.1675
▁anagyris	-12.1675
▁anaheim	-12.1675
▁anahola	-12.1675
▁anahuac	-12.1675
▁anak	-12.1675
▁anal	-12.1675
▁analbuminemia	-12.1675
▁analcite	-12.1675
▁analecta	-12.1675
▁analects	-12.1675
▁analemma	-12.1675
▁analeptic	-12.1675
▁analgesia	-12.1675
▁analgesic	-12.1675
▁analgesics	-12.1675
▁analiese	-12.1675
▁analise	-12.1675
▁anallese	-12.1675
▁anallise	-12.1675
▁anally	-12.1675
▁analog	-12.1675
▁analogic	-12.1675
▁analogical	-12.1675
▁analogically	-12.1675
▁analogies	-12.1675
▁analogise	-12.1675
▁analogist	-12.1675
▁analogize	-12.1675
▁analogous	-12.1675
▁analogously	-12.1675
▁analogousness	-12.1675
▁analogs	-12.1675
▁analogue	-12.1675
▁analogues	-12.1675
▁analogy	-12.1675
▁analomink	-12.1675
▁analphabet	-12.1675
▁analphabetic	-12.1675
▁analysand	-12.1675
▁analysands	-12.1675
▁analyse	-12.1675
▁analysed	-12.1675
▁analyser	-12.1675
▁analysers	-12.1675
▁analyses	-12.1675
▁analysing	-12.1675
▁analysis	-12.1675
▁analyst	-12.1675
▁analysts	-12.1675
▁analytic	-12.1675
▁analytical	-12.1675
▁analytically	-12.1675
▁analyticity	-12.1675
▁analytics	-12.1675
▁analyzability	-12.1675
▁analyzable	-12.1675
▁analyzation	-12.1675
▁analyzations	-12.1675
▁analyze	-12.1675
▁analyzed	-12.1675
▁analyzer	-12.1675
▁analyzes	-12.1675
▁analyzing	-12.1675
▁anam	-12.1675
▁anamneses	-12.1675
▁anamnesis	-12.1675
▁anamnestic	-12.1675
▁anamoose	-12.1675
▁anamorphic	-12.1675
▁anamorphism	-12.1675
▁anamorphoscope	-12.1675
▁anamorphosis	-12.1675
▁anamosa	-12.1675
▁anana	-12.1675
▁ananas	-12.1675
▁ananda	-12.1675
▁anandrous	-12.1675
▁ananias	-12.1675
▁ananiases	-12.1675
▁ananna	-12.1675
▁ananthous	-12.1675
▁anapaest	-12.1675
▁anapaestically	-12.1675
▁anapaests	-12.1675
▁anapest	-12.1675
▁anapestic	-12.1675
▁anapestics	-12.1675
▁anapests	-12.1675
▁anaphalis	-12.1675
▁anaphase	-12.1675
▁anaphasic	-12.1675
▁anaphor	-12.1675
▁anaphora	-12.1675
▁anaphoras	-12.1675
▁anaphoric	-12.1675
▁anaphors	-12.1675
▁anaphrodisia	-12.1675
▁anaphrodisiac	-12.1675
▁anaphrodisiacs	-12.1675
▁anaphylactic	-12.1675
▁anaphylaxis	-12.1675
▁anaplasia	-12.1675
▁anaplasmosis	-12.1675
▁anaplastic	-12.1675
▁anaplasty	-12.1675
▁anapnoeic	-12.1675
▁anapsid	-12.1675
▁anapsida	-12.1675
▁anaptyxis	-12.1675
▁anarch	-12.1675
▁anarchic	-12.1675
▁anarchical	-12.1675
▁anarchically	-12.1675
▁anarchism	-12.1675
▁anarchist	-12.1675
▁anarchistic	-12.1675
▁anarchists	-12.1675
▁anarchize	-12.1675
▁anarchized	-12.1675
▁anarchizes	-12.1675
▁anarchizing	-12.1675
▁anarchs	-12.1675
▁anarchy	-12.1675
▁anarhichadidae	-12.1675
▁anarhichas	-12.1675
▁anarthria	-12.1675
▁anarthrous	-12.1675
▁anas	-12.1675
▁anasa	-12.1675
▁anasarca	-12.1675
▁anasarcous	-12.1675
▁anasazi	-12.1675
▁anasco	-12.1675
▁anaspid	-12.1675
▁anaspida	-12.1675
▁anastalsis	-12.1675
▁anastas	-12.1675
▁anastase	-12.1675
▁anastasie	-12.1675
▁anastasio	-12.1675
▁anastasius	-12.1675
▁anastassia	-12.1675
▁anastatica	-12.1675
▁anastatius	-12.1675
▁anastice	-12.1675
▁anastigmat	-12.1675
▁anastigmatic	-12.1675
▁anastomose	-12.1675
▁anastomoses	-12.1675
▁anastomosis	-12.1675
▁anastomotic	-12.1675
▁anastomus	-12.1675
▁anastos	-12.1675
▁anastrophe	-12.1675
▁anastylosis	-12.1675
▁anatase	-12.1675
▁anathema	-12.1675
▁anathemas	-12.1675
▁anathematiser	-12.1675
▁anathematization	-12.1675
▁anathematizations	-12.1675
▁anathematizer	-12.1675
▁anatidae	-12.1675
▁anatol	-12.1675
▁anatola	-12.1675
▁anatolian	-12.1675
▁anatolians	-12.1675
▁anatolic	-12.1675
▁anatolio	-12.1675
▁anatollo	-12.1675
▁anatomic	-12.1675
▁anatomical	-12.1675
▁anatomically	-12.1675
▁anatomies	-12.1675
▁anatomisable	-12.1675
▁anatomise	-12.1675
▁anatomiser	-12.1675
▁anatomist	-12.1675
▁anatomists	-12.1675
▁anatomizable	-12.1675
▁anatomization	-12.1675
▁anatomize	-12.1675
▁anatomizer	-12.1675
▁anatomy	-12.1675
▁anatone	-12.1675
▁anatotitan	-12.1675
▁anatoxin	-12.1675
▁anatropous	-12.1675
▁anatto	-12.1675
▁anattos	-12.1675
▁anawalt	-12.1675
▁anaxagoras	-12.1675
▁anaximander	-12.1675
▁anaximenes	-12.1675
▁ancalin	-12.1675
▁ancel	-12.1675
▁ancelin	-12.1675
▁anceline	-12.1675
▁ancell	-12.1675
▁ancestor	-12.1675
▁ancestored	-12.1675
▁ancestoring	-12.1675
▁ancestors	-12.1675
▁ancestral	-12.1675
▁ancestrally	-12.1675
▁ancestress	-12.1675
▁ancestresses	-12.1675
▁ancestries	-12.1675
▁ancestry	-12.1675
▁anchie	-12.1675
▁anchises	-12.1675
▁ancho	-12.1675
▁anchor	-12.1675
▁anchorage	-12.1675
▁anchorages	-12.1675
▁anchored	-12.1675
▁anchoress	-12.1675
▁anchoring	-12.1675
▁anchorite	-12.1675
▁anchorites	-12.1675
▁anchoritic	-12.1675
▁anchorman	-12.1675
▁anchormen	-12.1675
▁anchorpeople	-12.1675
▁anchorperson	-12.1675
▁anchors	-12.1675
▁anchorville	-12.1675
▁anchorwoman	-12.1675
▁anchorwomen	-12.1675
▁anchos	-12.1675
▁anchoveta	-12.1675
▁anchovies	-12.1675
▁anchovy	-12.1675
▁anchusa	-12.1675
▁anchusas	-12.1675
▁anchusin	-12.1675
▁anchylose	-12.1675
▁ancient	-12.1675
▁ancienter	-12.1675
▁ancientest	-12.1675
▁anciently	-12.1675
▁ancientness	-12.1675
▁ancients	-12.1675
▁ancier	-12.1675
▁ancilin	-12.1675
▁ancilla	-12.1675
▁ancillae	-12.1675
▁ancillaries	-12.1675
▁ancillary	-12.1675
▁ancille	-12.1675
▁ancipital	-12.1675
▁anco	-12.1675
▁ancohuma	-12.1675
▁ancon	-12.1675
▁ancona	-12.1675
▁ancones	-12.1675
▁ancram	-12.1675
▁ancramdale	-12.1675
▁ancylidae	-12.1675
▁ancylostomatidae	-12.1675
▁ancylostomiasis	-12.1675
▁ancylus	-12.1675
▁and	-12.1675
▁andale	-12.1675
▁andalusia	-12.1675
▁andalusian	-12.1675
▁andalusians	-12.1675
▁andalusite	-12.1675
▁andamanese	-12.1675
▁andante	-12.1675
▁andantes	-12.1675
▁andantino	-12.1675
▁andantinos	-12.1675
▁andean	-12.1675
▁andee	-12.1675
▁andeee	-12.1675
▁andel	-12.1675
▁ander	-12.1675
▁anderea	-12.1675
▁anderegg	-12.1675
▁anderer	-12.1675
▁anderlecht	-12.1675
▁anders	-12.1675
▁andersen	-12.1675
▁anderson	-12.1675
▁andersonville	-12.1675
▁andert	-12.1675
▁andes	-12.1675
▁andesine	-12.1675
▁andesite	-12.1675
▁andesitic	-12.1675
▁andi	-12.1675
▁andie	-12.1675
▁andine	-12.1675
▁andira	-12.1675
▁andiron	-12.1675
▁andirons	-12.1675
▁andisol	-12.1675
▁andisols	-12.1675
▁andizhan	-12.1675
▁andonis	-12.1675
▁andorra	-12.1675
▁andorran	-12.1675
▁andosol	-12.1675
▁andosols	-12.1675
▁andouille	-12.1675
▁andover	-12.1675
▁andra	-12.1675
▁andrade	-12.1675
▁andradite	-12.1675
▁andras	-12.1675
▁andreaea	-12.1675
▁andreaeales	-12.1675
▁andreana	-12.1675
▁andreas	-12.1675
▁andree	-12.1675
▁andrej	-12.1675
▁andrel	-12.1675
▁andrena	-12.1675
▁andrenidae	-12.1675
▁andrew	-12.1675
▁andrewes	-12.1675
▁andrews	-12.1675
▁andrey	-12.1675
▁andri	-12.1675
▁andria	-12.1675
▁andriana	-12.1675
▁andricus	-12.1675
▁andrien	-12.1675
▁andriette	-12.1675
▁andris	-12.1675
▁androcles	-12.1675
▁androclinium	-12.1675
▁androecia	-12.1675
▁androecium	-12.1675
▁androgen	-12.1675
▁androgenesis	-12.1675
▁androgenetic	-12.1675
▁androgenic	-12.1675
▁androgens	-12.1675
▁androglossia	-12.1675
▁androgyne	-12.1675
▁androgynes	-12.1675
▁androgynous	-12.1675
▁androgynously	-12.1675
▁androgyny	-12.1675
▁android	-12.1675
▁androids	-12.1675
▁andrology	-12.1675
▁andromada	-12.1675
▁andromeda	-12.1675
▁andromede	-12.1675
▁andronicus	-12.1675
▁androphobia	-12.1675
▁andropogon	-12.1675
▁androsphinx	-12.1675
▁androsterone	-12.1675
▁androw	-12.1675
▁andrus	-12.1675
▁andryala	-12.1675
▁andryc	-12.1675
▁ands	-12.1675
▁andvari	-12.1675
▁ane	-12.1675
▁anear	-12.1675
▁anecdotage	-12.1675
▁anecdotal	-12.1675
▁anecdotalist	-12.1675
▁anecdotalists	-12.1675
▁anecdotally	-12.1675
▁anecdote	-12.1675
▁anecdotes	-12.1675
▁anecdotic	-12.1675
▁anecdotist	-12.1675
▁anecdotists	-12.1675
▁anechoic	-12.1675
▁aneides	-12.1675
▁aneima	-12.1675
▁anelace	-12.1675
▁anele	-12.1675
▁aneled	-12.1675
▁aneles	-12.1675
▁aneling	-12.1675
▁anemia	-12.1675
▁anemias	-12.1675
▁anemic	-12.1675
▁anemochore	-12.1675
▁anemograph	-12.1675
▁anemographic	-12.1675
▁anemography	-12.1675
▁anemology	-12.1675
▁anemometer	-12.1675
▁anemometers	-12.1675
▁anemometric	-12.1675
▁anemometry	-12.1675
▁anemone	-12.1675
▁anemonella	-12.1675
▁anemones	-12.1675
▁anemophilous	-12.1675
▁anemopsis	-12.1675
▁anemoscope	-12.1675
▁anencephalic	-12.1675
▁anencephaly	-12.1675
▁anent	-12.1675
▁anergia	-12.1675
▁anergy	-12.1675
▁anerobic	-12.1675
▁aneroid	-12.1675
▁aneroidograph	-12.1675
▁aneroids	-12.1675
▁anesis	-12.1675
▁anestassia	-12.1675
▁anesthesia	-12.1675
▁anesthesias	-12.1675
▁anesthesiologist	-12.1675
▁anesthesiologists	-12.1675
▁anesthesiology	-12.1675
▁anesthesis	-12.1675
▁anesthetic	-12.1675
▁anesthetics	-12.1675
▁anesthetist	-12.1675
▁anesthetists	-12.1675
▁anesthetizations	-12.1675
▁anesthetize	-12.1675
▁anesthetized	-12.1675
▁anesthetizes	-12.1675
▁anesthetizing	-12.1675
▁anesthyl	-12.1675
▁anestri	-12.1675
▁anestrous	-12.1675
▁anestrum	-12.1675
▁anestrus	-12.1675
▁anestruses	-12.1675
▁anet	-12.1675
▁aneta	-12.1675
▁aneth	-12.1675
▁anethole	-12.1675
▁anethum	-12.1675
▁anetic	-12.1675
▁aneto	-12.1675
▁anett	-12.1675
▁anetta	-12.1675
▁anette	-12.1675
▁aneuploid	-12.1675
▁aneuploidy	-12.1675
▁aneurin	-12.1675
▁aneurism	-12.1675
▁aneurisms	-12.1675
▁aneurysm	-12.1675
▁aneurysmal	-12.1675
▁aneurysms	-12.1675
▁anew	-12.1675
▁aney	-12.1675
▁anfractuosity	-12.1675
▁anfractuous	-12.1675
▁angadreme	-12.1675
▁angadresma	-12.1675
▁angara	-12.1675
▁angarsk	-12.1675
▁angary	-12.1675
▁angas	-12.1675
▁ange	-12.1675
▁angel	-12.1675
▁angele	-12.1675
▁angeleno	-12.1675
▁angelenos	-12.1675
▁angeles	-12.1675
▁angelfish	-12.1675
▁angelfishes	-12.1675
▁angeli	-12.1675
▁angelic	-12.1675
▁angelica	-12.1675
▁angelical	-12.1675
▁angelically	-12.1675
▁angelicas	-12.1675
▁angelicise	-12.1675
▁angelicize	-12.1675
▁angelika	-12.1675
▁angelim	-12.1675
▁angelis	-12.1675
▁angelise	-12.1675
▁angelize	-12.1675
▁angell	-12.1675
▁angelle	-12.1675
▁angelo	-12.1675
▁angelology	-12.1675
▁angels	-12.1675
▁angelus	-12.1675
▁anger	-12.1675
▁angered	-12.1675
▁angering	-12.1675
▁angers	-12.1675
▁angevin	-12.1675
▁angi	-12.1675
▁angier	-12.1675
▁angiitis	-12.1675
▁angil	-12.1675
▁angina	-12.1675
▁anginal	-12.1675
▁angiocardiogram	-12.1675
▁angiocarp	-12.1675
▁angiocarpic	-12.1675
▁angioedema	-12.1675
▁angiogeneses	-12.1675
▁angiogenesis	-12.1675
▁angiogenic	-12.1675
▁angiogram	-12.1675
▁angiograms	-12.1675
▁angiographies	-12.1675
▁angiography	-12.1675
▁angiologist	-12.1675
▁angiology	-12.1675
▁angioma	-12.1675
▁angiomas	-12.1675
▁angiomata	-12.1675
▁angiomatous	-12.1675
▁angiopathy	-12.1675
▁angioplasties	-12.1675
▁angioplasty	-12.1675
▁angiopteris	-12.1675
▁angiosarcoma	-12.1675
▁angioscope	-12.1675
▁angiosperm	-12.1675
▁angiospermae	-12.1675
▁angiospermous	-12.1675
▁angiosperms	-12.1675
▁angiotelectasia	-12.1675
▁angiotensin	-12.1675
▁angl	-12.1675
▁angle	-12.1675
▁angled	-12.1675
▁angledozer	-12.1675
▁angleinlet	-12.1675
▁anglepoise	-12.1675
▁angler	-12.1675
▁anglers	-12.1675
▁angles	-12.1675
▁anglesey	-12.1675
▁anglesite	-12.1675
▁angleton	-12.1675
▁anglewing	-12.1675
▁angleworm	-12.1675
▁angleworms	-12.1675
▁anglia	-12.1675
▁anglian	-12.1675
▁anglican	-12.1675
▁anglicanism	-12.1675
▁anglice	-12.1675
▁anglicise	-12.1675
▁anglicised	-12.1675
▁anglicises	-12.1675
▁anglicising	-12.1675
▁anglicism	-12.1675
▁anglicisms	-12.1675
▁anglicist	-12.1675
▁anglicization	-12.1675
▁anglicize	-12.1675
▁anglicized	-12.1675
▁anglicizes	-12.1675
▁anglicizing	-12.1675
▁anglim	-12.1675
▁angling	-12.1675
▁anglistics	-12.1675
▁anglo	-12.1675
▁anglocatholicism	-12.1675
▁anglocentric	-12.1675
▁anglocentrism	-12.1675
▁anglocentrist	-12.1675
▁anglomania	-12.1675
▁anglophile	-12.1675
▁anglophiles	-12.1675
▁anglophilia	-12.1675
▁anglophilias	-12.1675
▁anglophilic	-12.1675
▁anglophobe	-12.1675
▁anglophobia	-12.1675
▁anglophobias	-12.1675
▁anglophobic	-12.1675
▁anglophone	-12.1675
▁anglophones	-12.1675
▁angola	-12.1675
▁angolan	-12.1675
▁angolese	-12.1675
▁angora	-12.1675
▁angoras	-12.1675
▁angostura	-12.1675
▁angraecum	-12.1675
▁angrecum	-12.1675
▁angrez	-12.1675
▁angrier	-12.1675
▁angriest	-12.1675
▁angrily	-12.1675
▁angriness	-12.1675
▁angrinesses	-12.1675
▁angrist	-12.1675
▁angry	-12.1675
▁angst	-12.1675
▁angstrom	-12.1675
▁angstroms	-12.1675
▁angsty	-12.1675
▁anguidae	-12.1675
▁anguilla	-12.1675
▁anguillan	-12.1675
▁anguillidae	-12.1675
▁anguilliform	-12.1675
▁anguilliformes	-12.1675
▁anguillula	-12.1675
▁anguine	-12.1675
▁anguis	-12.1675
▁anguish	-12.1675
▁anguished	-12.1675
▁anguishes	-12.1675
▁anguishing	-12.1675
▁angular	-12.1675
▁angularisation	-12.1675
▁angularise	-12.1675
▁angularities	-12.1675
▁angularity	-12.1675
▁angularization	-12.1675
▁angularize	-12.1675
▁angularly	-12.1675
▁angulate	-12.1675
▁angulated	-12.1675
▁angulates	-12.1675
▁angulation	-12.1675
▁anguses	-12.1675
▁angwantibo	-12.1675
▁angwin	-12.1675
▁angy	-12.1675
▁anh	-12.1675
▁anhaematopoiesis	-12.1675
▁anhaematosis	-12.1675
▁anhaemolytic	-12.1675
▁anhalt	-12.1675
▁anhedonia	-12.1675
▁anhedonic	-12.1675
▁anhedral	-12.1675
▁anhidrosis	-12.1675
▁anhima	-12.1675
▁anhimidae	-12.1675
▁anhinga	-12.1675
▁anhingas	-12.1675
▁anhingidae	-12.1675
▁anhwei	-12.1675
▁anhydraemia	-12.1675
▁anhydraemic	-12.1675
▁anhydride	-12.1675
▁anhydrides	-12.1675
▁anhydridisation	-12.1675
▁anhydridise	-12.1675
▁anhydridization	-12.1675
▁anhydridize	-12.1675
▁anhydrite	-12.1675
▁anhydrous	-12.1675
▁ani	-12.1675
▁ania	-12.1675
▁aniak	-12.1675
▁aniakudo	-12.1675
▁anica	-12.1675
▁aniconic	-12.1675
▁anicteric	-12.1675
▁aniela	-12.1675
▁anigozanthus	-12.1675
▁anil	-12.1675
▁anile	-12.1675
▁anilin	-12.1675
▁aniline	-12.1675
▁anilingus	-12.1675
▁anilins	-12.1675
▁anility	-12.1675
▁anima	-12.1675
▁animadversion	-12.1675
▁animadversions	-12.1675
▁animadvert	-12.1675
▁animadverted	-12.1675
▁animadverting	-12.1675
▁animadverts	-12.1675
▁animal	-12.1675
▁animalcule	-12.1675
▁animalcules	-12.1675
▁animalia	-12.1675
▁animalise	-12.1675
▁animalism	-12.1675
▁animalisms	-12.1675
▁animalist	-12.1675
▁animalistic	-12.1675
▁animality	-12.1675
▁animalization	-12.1675
▁animalizations	-12.1675
▁animalize	-12.1675
▁animalized	-12.1675
▁animalizes	-12.1675
▁animalizing	-12.1675
▁animals	-12.1675
▁animas	-12.1675
▁animate	-12.1675
▁animated	-12.1675
▁animatedly	-12.1675
▁animateness	-12.1675
▁animates	-12.1675
▁animateur	-12.1675
▁animati	-12.1675
▁animatic	-12.1675
▁animatics	-12.1675
▁animating	-12.1675
▁animation	-12.1675
▁animations	-12.1675
▁animatism	-12.1675
▁animatistic	-12.1675
▁animato	-12.1675
▁animator	-12.1675
▁animators	-12.1675
▁animatos	-12.1675
▁animatronics	-12.1675
▁anime	-12.1675
▁animes	-12.1675
▁animised	-12.1675
▁animism	-12.1675
▁animist	-12.1675
▁animistic	-12.1675
▁animists	-12.1675
▁animize	-12.1675
▁animized	-12.1675
▁animosities	-12.1675
▁animosity	-12.1675
▁animus	-12.1675
▁animuses	-12.1675
▁anion	-12.1675
▁anionic	-12.1675
▁anionically	-12.1675
▁anions	-12.1675
▁anis	-12.1675
▁anise	-12.1675
▁aniseed	-12.1675
▁aniseeds	-12.1675
▁aniseikonia	-12.1675
▁aniseikonic	-12.1675
▁anises	-12.1675
▁anisette	-12.1675
▁anisettes	-12.1675
▁anisogamete	-12.1675
▁anisogametic	-12.1675
▁anisogamic	-12.1675
▁anisogamy	-12.1675
▁anisole	-12.1675
▁anisomerous	-12.1675
▁anisometric	-12.1675
▁anisometropia	-12.1675
▁anisometropic	-12.1675
▁anisoptera	-12.1675
▁anisotremus	-12.1675
▁anisotropic	-12.1675
▁anisotropically	-12.1675
▁anisotropies	-12.1675
▁anisotropy	-12.1675
▁anissa	-12.1675
▁aniston	-12.1675
▁anitra	-12.1675
▁aniwa	-12.1675
▁aniweta	-12.1675
▁anjali	-12.1675
▁anjanette	-12.1675
▁anjela	-12.1675
▁anjou	-12.1675
▁ankara	-12.1675
▁ankeny	-12.1675
▁ankerite	-12.1675
▁ankers	-12.1675
▁ankh	-12.1675
▁ankhs	-12.1675
▁anking	-12.1675
▁ankle	-12.1675
▁anklebone	-12.1675
▁anklebones	-12.1675
▁ankled	-12.1675
▁ankles	-12.1675
▁anklet	-12.1675
▁anklets	-12.1675
▁ankling	-12.1675
▁ankney	-12.1675
▁ankole	-12.1675
▁ankoles	-12.1675
▁ankus	-12.1675
▁ankuses	-12.1675
▁ankylosaur	-12.1675
▁ankylosaurus	-12.1675
▁ankylose	-12.1675
▁ankylosed	-12.1675
▁ankyloses	-12.1675
▁ankylosis	-12.1675
▁ankylostomiasis	-12.1675
▁ankylotic	-12.1675
▁anlace	-12.1675
▁anlage	-12.1675
▁anlagen	-12.1675
▁anmoore	-12.1675
▁anna	-12.1675
▁annaba	-12.1675
▁annabal	-12.1675
▁annabela	-12.1675
▁annabell	-12.1675
▁annabella	-12.1675
▁annabergite	-12.1675
▁annada	-12.1675
▁annadiana	-12.1675
▁annadiane	-12.1675
▁annal	-12.1675
▁annalee	-12.1675
▁annaliese	-12.1675
▁annalise	-12.1675
▁annalist	-12.1675
▁annalistic	-12.1675
▁annalists	-12.1675
▁annalize	-12.1675
▁annalized	-12.1675
▁annalizes	-12.1675
▁annalizing	-12.1675
▁annals	-12.1675
▁annamaria	-12.1675
▁annamarie	-12.1675
▁annamese	-12.1675
▁annandale	-12.1675
▁annapolis	-12.1675
▁annapurna	-12.1675
▁annarbor	-12.1675
▁annas	-12.1675
▁annates	-12.1675
▁annatto	-12.1675
▁annattos	-12.1675
▁annawan	-12.1675
▁annawon	-12.1675
▁anne	-12.1675
▁anneal	-12.1675
▁annealed	-12.1675
▁annealer	-12.1675
▁annealers	-12.1675
▁annealing	-12.1675
▁anneals	-12.1675
▁annecorinne	-12.1675
▁annecy	-12.1675
▁annelid	-12.1675
▁annelida	-12.1675
▁annelidan	-12.1675
▁annelids	-12.1675
▁anneliese	-12.1675
▁annelise	-12.1675
▁annemanie	-12.1675
▁annemarie	-12.1675
▁annenberg	-12.1675
▁annetta	-12.1675
▁annex	-12.1675
▁annexation	-12.1675
▁annexational	-12.1675
▁annexationism	-12.1675
▁annexationisms	-12.1675
▁annexationist	-12.1675
▁annexationists	-12.1675
▁annexations	-12.1675
▁annexe	-12.1675
▁annexed	-12.1675
▁annexes	-12.1675
▁annexing	-12.1675
▁anni	-12.1675
▁annia	-12.1675
▁annice	-12.1675
▁anniellidae	-12.1675
▁annigoni	-12.1675
▁annihilate	-12.1675
▁annihilated	-12.1675
▁annihilates	-12.1675
▁annihilating	-12.1675
▁annihilation	-12.1675
▁annihilative	-12.1675
▁annihilator	-12.1675
▁annihilators	-12.1675
▁anniken	-12.1675
▁annis	-12.1675
▁annissa	-12.1675
▁anniston	-12.1675
▁anniversaries	-12.1675
▁anniversary	-12.1675
▁annmaria	-12.1675
▁annnora	-12.1675
▁anno	-12.1675
▁annona	-12.1675
▁annonaceae	-12.1675
▁annora	-12.1675
▁annorah	-12.1675
▁annotate	-12.1675
▁annotated	-12.1675
▁annotates	-12.1675
▁annotating	-12.1675
▁annotation	-12.1675
▁annotations	-12.1675
▁annotative	-12.1675
▁annotator	-12.1675
▁annotators	-12.1675
▁announce	-12.1675
▁announced	-12.1675
▁announcement	-12.1675
▁announcements	-12.1675
▁announcer	-12.1675
▁announcers	-12.1675
▁announces	-12.1675
▁announcing	-12.1675
▁annoy	-12.1675
▁annoyance	-12.1675
▁annoyances	-12.1675
▁annoyed	-12.1675
▁annoyedly	-12.1675
▁annoyer	-12.1675
▁annoyers	-12.1675
▁annoying	-12.1675
▁annoyingly	-12.1675
▁annoys	-12.1675
▁annual	-12.1675
▁annualised	-12.1675
▁annualize	-12.1675
▁annualized	-12.1675
▁annualizes	-12.1675
▁annualizing	-12.1675
▁annually	-12.1675
▁annuals	-12.1675
▁annuitant	-12.1675
▁annuitants	-12.1675
▁annuities	-12.1675
▁annuitise	-12.1675
▁annuitize	-12.1675
▁annuity	-12.1675
▁annul	-12.1675
▁annular	-12.1675
▁annularities	-12.1675
▁annularity	-12.1675
▁annularly	-12.1675
▁annulars	-12.1675
▁annulata	-12.1675
▁annulate	-12.1675
▁annulated	-12.1675
▁annulation	-12.1675
▁annulet	-12.1675
▁annulets	-12.1675
▁annuli	-12.1675
▁annulled	-12.1675
▁annulling	-12.1675
▁annulment	-12.1675
▁annulments	-12.1675
▁annulose	-12.1675
▁annuls	-12.1675
▁annulus	-12.1675
▁annuluses	-12.1675
▁annum	-12.1675
▁annunciata	-12.1675
▁annunciate	-12.1675
▁annunciated	-12.1675
▁annunciates	-12.1675
▁annunciating	-12.1675
▁annunciation	-12.1675
▁annunciations	-12.1675
▁annunciator	-12.1675
▁annunciators	-12.1675
▁annunciatory	-12.1675
▁annus	-12.1675
▁annville	-12.1675
▁annwfn	-12.1675
▁anny	-12.1675
▁anoa	-12.1675
▁anoas	-12.1675
▁anobiidae	-12.1675
▁anodal	-12.1675
▁anode	-12.1675
▁anodes	-12.1675
▁anodic	-12.1675
▁anodise	-12.1675
▁anodised	-12.1675
▁anodiser	-12.1675
▁anodisers	-12.1675
▁anodises	-12.1675
▁anodising	-12.1675
▁anodization	-12.1675
▁anodize	-12.1675
▁anodized	-12.1675
▁anodizer	-12.1675
▁anodizers	-12.1675
▁anodizes	-12.1675
▁anodizing	-12.1675
▁anodonta	-12.1675
▁anodyne	-12.1675
▁anodynes	-12.1675
▁anoectochilus	-12.1675
▁anoesis	-12.1675
▁anoestra	-12.1675
▁anoestri	-12.1675
▁anoestrous	-12.1675
▁anoestrum	-12.1675
▁anoestrus	-12.1675
▁anoestruses	-12.1675
▁anoetic	-12.1675
▁anogramma	-12.1675
▁anoint	-12.1675
▁anointed	-12.1675
▁anointer	-12.1675
▁anointers	-12.1675
▁anointing	-12.1675
▁anointment	-12.1675
▁anoints	-12.1675
▁anoka	-12.1675
▁anole	-12.1675
▁anoles	-12.1675
▁anolis	-12.1675
▁anomala	-12.1675
▁anomalies	-12.1675
▁anomalism	-12.1675
▁anomalist	-12.1675
▁anomalistic	-12.1675
▁anomalopidae	-12.1675
▁anomalops	-12.1675
▁anomalopteryx	-12.1675
▁anomalous	-12.1675
▁anomalously	-12.1675
▁anomalousness	-12.1675
▁anomalousnesses	-12.1675
▁anomaly	-12.1675
▁anomia	-12.1675
▁anomic	-12.1675
▁anomie	-12.1675
▁anomiidae	-12.1675
▁anomy	-12.1675
▁anon	-12.1675
▁anona	-12.1675
▁anonaceae	-12.1675
▁anons	-12.1675
▁anonym	-12.1675
▁anonymise	-12.1675
▁anonymity	-12.1675
▁anonymize	-12.1675
▁anonymized	-12.1675
▁anonymizes	-12.1675
▁anonymizing	-12.1675
▁anonymous	-12.1675
▁anonymously	-12.1675
▁anonyms	-12.1675
▁anoperineal	-12.1675
▁anopheles	-12.1675
▁anopheline	-12.1675
▁anopia	-12.1675
▁anoplura	-12.1675
▁anopluran	-12.1675
▁anorak	-12.1675
▁anorakish	-12.1675
▁anoraks	-12.1675
▁anoraky	-12.1675
▁anorchism	-12.1675
▁anorectal	-12.1675
▁anorectic	-12.1675
▁anorectics	-12.1675
▁anorexia	-12.1675
▁anorexic	-12.1675
▁anorexics	-12.1675
▁anorgasmia	-12.1675
▁anorthic	-12.1675
▁anorthite	-12.1675
▁anorthitic	-12.1675
▁anorthopia	-12.1675
▁anorthosite	-12.1675
▁anosmia	-12.1675
▁anosmic	-12.1675
▁anostraca	-12.1675
▁another	-12.1675
▁anotherie	-12.1675
▁anothery	-12.1675
▁anouilh	-12.1675
▁anovulant	-12.1675
▁anovulation	-12.1675
▁anoxaemic	-12.1675
▁anoxemia	-12.1675
▁anoxemic	-12.1675
▁anoxia	-12.1675
▁anoxic	-12.1675
▁ans	-12.1675
▁ansafone	-12.1675
▁ansafones	-12.1675
▁ansate	-12.1675
▁ansatz	-12.1675
▁ansatzes	-12.1675
▁anschauung	-12.1675
▁anschauungen	-12.1675
▁anschluss	-12.1675
▁anse	-12.1675
▁ansel	-12.1675
▁ansela	-12.1675
▁ansell	-12.1675
▁anselm	-12.1675
▁anselma	-12.1675
▁anselme	-12.1675
▁anselmi	-12.1675
▁anser	-12.1675
▁anseres	-12.1675
▁anseriformes	-12.1675
▁anserinae	-12.1675
▁anserine	-12.1675
▁ansermet	-12.1675
▁anshar	-12.1675
▁ansilma	-12.1675
▁ansilme	-12.1675
▁ansley	-12.1675
▁anson	-12.1675
▁ansonia	-12.1675
▁ansonville	-12.1675
▁ansted	-12.1675
▁anstice	-12.1675
▁anstus	-12.1675
▁answer	-12.1675
▁answerable	-12.1675
▁answerably	-12.1675
▁answered	-12.1675
▁answerer	-12.1675
▁answerers	-12.1675
▁answering	-12.1675
▁answerphone	-12.1675
▁answerphones	-12.1675
▁answers	-12.1675
▁ant	-12.1675
▁anta	-12.1675
▁antabuse	-12.1675
▁antacid	-12.1675
▁antacids	-12.1675
▁antagonisable	-12.1675
▁antagonise	-12.1675
▁antagonised	-12.1675
▁antagoniser	-12.1675
▁antagonises	-12.1675
▁antagonising	-12.1675
▁antagonism	-12.1675
▁antagonisms	-12.1675
▁antagonist	-12.1675
▁antagonistic	-12.1675
▁antagonistically	-12.1675
▁antagonists	-12.1675
▁antagonizable	-12.1675
▁antagonization	-12.1675
▁antagonizations	-12.1675
▁antagonize	-12.1675
▁antagonized	-12.1675
▁antagonizer	-12.1675
▁antagonizes	-12.1675
▁antagonizing	-12.1675
▁antakiya	-12.1675
▁antalkali	-12.1675
▁antalya	-12.1675
▁antananarivo	-12.1675
▁antapex	-12.1675
▁antarctic	-12.1675
▁antarctica	-12.1675
▁antares	-12.1675
▁antbear	-12.1675
▁antbears	-12.1675
▁antbird	-12.1675
▁antbirds	-12.1675
▁ante	-12.1675
▁anteater	-12.1675
▁anteaters	-12.1675
▁antebellum	-12.1675
▁antebi	-12.1675
▁antecede	-12.1675
▁anteceded	-12.1675
▁antecedence	-12.1675
▁antecedency	-12.1675
▁antecedent	-12.1675
▁antecedents	-12.1675
▁antecedes	-12.1675
▁anteceding	-12.1675
▁antechamber	-12.1675
▁antechambers	-12.1675
▁antechoir	-12.1675
▁antecubital	-12.1675
▁anted	-12.1675
▁antedate	-12.1675
▁antedated	-12.1675
▁antedates	-12.1675
▁antedating	-12.1675
▁antediluvian	-12.1675
▁antedon	-12.1675
▁antedonidae	-12.1675
▁antefix	-12.1675
▁anteing	-12.1675
▁antelope	-12.1675
▁antelopes	-12.1675
▁antemeridian	-12.1675
▁antemortem	-12.1675
▁antemosaic	-12.1675
▁antemundane	-12.1675
▁antenatal	-12.1675
▁antenna	-12.1675
▁antennae	-12.1675
▁antennal	-12.1675
▁antennaria	-12.1675
▁antennariidae	-12.1675
▁antennas	-12.1675
▁antennule	-12.1675
▁antepast	-12.1675
▁antependium	-12.1675
▁antepenult	-12.1675
▁antepenultima	-12.1675
▁antepenultimas	-12.1675
▁antepenultimate	-12.1675
▁antepenultimates	-12.1675
▁antepenults	-12.1675
▁anterior	-12.1675
▁anteriorities	-12.1675
▁anteriority	-12.1675
▁anteriorly	-12.1675
▁anterograde	-12.1675
▁anteroom	-12.1675
▁anterooms	-12.1675
▁antes	-12.1675
▁antesfort	-12.1675
▁antetype	-12.1675
▁anteversion	-12.1675
▁antevert	-12.1675
▁anthe	-12.1675
▁anthea	-12.1675
▁anthelia	-12.1675
▁anthelion	-12.1675
▁anthelmintic	-12.1675
▁anthem	-12.1675
▁anthemia	-12.1675
▁anthemic	-12.1675
▁anthemion	-12.1675
▁anthemis	-12.1675
▁anthems	-12.1675
▁anther	-12.1675
▁antheraea	-12.1675
▁antheral	-12.1675
▁anthericum	-12.1675
▁antheridial	-12.1675
▁antheridiophore	-12.1675
▁antheridium	-12.1675
▁antheropeas	-12.1675
▁antherozoid	-12.1675
▁anthers	-12.1675
▁anthesis	-12.1675
▁anthesteria	-12.1675
▁anthia	-12.1675
▁anthiathia	-12.1675
▁anthidium	-12.1675
▁anthill	-12.1675
▁anthills	-12.1675
▁anthoceropsida	-12.1675
▁anthoceros	-12.1675
▁anthocerotaceae	-12.1675
▁anthocerotales	-12.1675
▁anthocyanin	-12.1675
▁anthodium	-12.1675
▁anthoecological	-12.1675
▁anthoecologist	-12.1675
▁anthoecology	-12.1675
▁anthologies	-12.1675
▁anthologist	-12.1675
▁anthologists	-12.1675
▁anthologize	-12.1675
▁anthologizer	-12.1675
▁anthology	-12.1675
▁anthon	-12.1675
▁anthonomus	-12.1675
▁anthony	-12.1675
▁anthophagous	-12.1675
▁anthophore	-12.1675
▁anthophyllite	-12.1675
▁anthotaxy	-12.1675
▁anthozoa	-12.1675
▁anthozoan	-12.1675
▁anthracaemia	-12.1675
▁anthracene	-12.1675
▁anthracite	-12.1675
▁anthracitic	-12.1675
▁anthracitisation	-12.1675
▁anthracitization	-12.1675
▁anthracnose	-12.1675
▁anthracoid	-12.1675
▁anthracosilicosis	-12.1675
▁anthracosis	-12.1675
▁anthraquinone	-12.1675
▁anthrax	-12.1675
▁anthriscus	-12.1675
▁anthropic	-12.1675
▁anthropocentric	-12.1675
▁anthropocentrism	-12.1675
▁anthropocentrisms	-12.1675
▁anthropogenesis	-12.1675
▁anthropogenetic	-12.1675
▁anthropogenic	-12.1675
▁anthropogenically	-12.1675
▁anthropogeography	-12.1675
▁anthropography	-12.1675
▁anthropoid	-12.1675
▁anthropoidea	-12.1675
▁anthropoids	-12.1675
▁anthropolatry	-12.1675
▁anthropologic	-12.1675
▁anthropological	-12.1675
▁anthropologically	-12.1675
▁anthropologist	-12.1675
▁anthropologists	-12.1675
▁anthropology	-12.1675
▁anthropometric	-12.1675
▁anthropometry	-12.1675
▁anthropomorphic	-12.1675
▁anthropomorphically	-12.1675
▁anthropomorphism	-12.1675
▁anthropomorphization	-12.1675
▁anthropomorphizations	-12.1675
▁anthropomorphize	-12.1675
▁anthropomorphosis	-12.1675
▁anthropomorphous	-12.1675
▁anthropopathy	-12.1675
▁anthropophagi	-12.1675
▁anthropophagies	-12.1675
▁anthropophagite	-12.1675
▁anthropophagous	-12.1675
▁anthropophagy	-12.1675
▁anthroposophy	-12.1675
▁anthurium	-12.1675
▁anthus	-12.1675
▁anthyllis	-12.1675
▁anti	-12.1675
▁antiabortion	-12.1675
▁antiabortionist	-12.1675
▁antiabortionists	-12.1675
▁antiadrenergic	-12.1675
▁antiaging	-12.1675
▁antiaircraft	-12.1675
▁antialcohol	-12.1675
▁antialiasing	-12.1675
▁antiallergic	-12.1675
▁antianxiety	-12.1675
▁antiapartheid	-12.1675
▁antiapartheids	-12.1675
▁antiar	-12.1675
▁antiarrhythmic	-12.1675
▁antiauthoritarian	-12.1675
▁antibacterial	-12.1675
▁antibacterials	-12.1675
▁antibaryon	-12.1675
▁antibes	-12.1675
▁antibiosis	-12.1675
▁antibiotic	-12.1675
▁antibiotics	-12.1675
▁antibodies	-12.1675
▁antibody	-12.1675
▁antiburgher	-12.1675
▁antic	-12.1675
▁anticancer	-12.1675
▁anticapitalist	-12.1675
▁anticapitalists	-12.1675
▁anticatalyser	-12.1675
▁anticatalyst	-12.1675
▁anticathexis	-12.1675
▁anticathode	-12.1675
▁anticentralisation	-12.1675
▁anticentralization	-12.1675
▁antichlor	-12.1675
▁anticholesterol	-12.1675
▁anticholinergic	-12.1675
▁anticholinesterase	-12.1675
▁antichrist	-12.1675
▁antichristian	-12.1675
▁antichronical	-12.1675
▁antichthon	-12.1675
▁anticipant	-12.1675
▁anticipate	-12.1675
▁anticipated	-12.1675
▁anticipates	-12.1675
▁anticipating	-12.1675
▁anticipatingly	-12.1675
▁anticipation	-12.1675
▁anticipations	-12.1675
▁anticipative	-12.1675
▁anticipator	-12.1675
▁anticipators	-12.1675
▁anticipatory	-12.1675
▁anticise	-12.1675
▁anticises	-12.1675
▁anticize	-12.1675
▁anticizes	-12.1675
▁anticked	-12.1675
▁anticking	-12.1675
▁anticlastic	-12.1675
▁anticlerical	-12.1675
▁anticlericalism	-12.1675
▁anticlericalisms	-12.1675
▁anticlericals	-12.1675
▁anticlimactic	-12.1675
▁anticlimactically	-12.1675
▁anticlimax	-12.1675
▁anticlimaxes	-12.1675
▁anticlinal	-12.1675
▁anticline	-12.1675
▁anticlines	-12.1675
▁anticlinorium	-12.1675
▁anticlockwise	-12.1675
▁anticoagulant	-12.1675
▁anticoagulants	-12.1675
▁anticoagulating	-12.1675
▁anticoagulation	-12.1675
▁anticoagulative	-12.1675
▁anticodon	-12.1675
▁anticolonial	-12.1675
▁anticolonialism	-12.1675
▁anticolonialisms	-12.1675
▁anticolonials	-12.1675
▁anticommunism	-12.1675
▁anticommunist	-12.1675
▁anticommunists	-12.1675
▁anticonvulsant	-12.1675
▁anticorrosive	-12.1675
▁anticorrosives	-12.1675
▁anticosti	-12.1675
▁anticrime	-12.1675
▁antics	-12.1675
▁anticyclone	-12.1675
▁anticyclones	-12.1675
▁anticyclonic	-12.1675
▁antidemocratic	-12.1675
▁antidepressant	-12.1675
▁antidepressants	-12.1675
▁antidepressive	-12.1675
▁antidiabetic	-12.1675
▁antidiarrheal	-12.1675
▁antidiarrheals	-12.1675
▁antidisestablishmentarian	-12.1675
▁antidisestablishmentarianism	-12.1675
▁antidisestablishmentarianisms	-12.1675
▁antidiuretic	-12.1675
▁antido	-12.1675
▁antidorcas	-12.1675
▁antidotal	-12.1675
▁antidote	-12.1675
▁antidotes	-12.1675
▁antidromic	-12.1675
▁antidrug	-12.1675
▁antiemetic	-12.1675
▁antiepicentre	-12.1675
▁antiestablishment	-12.1675
▁antiestablishmentarianism	-12.1675
▁antifascism	-12.1675
▁antifascisms	-12.1675
▁antifascist	-12.1675
▁antifascists	-12.1675
▁antifebrile	-12.1675
▁antifederalist	-12.1675
▁antifeminism	-12.1675
▁antifeminisms	-12.1675
▁antifeminist	-12.1675
▁antifeminists	-12.1675
▁antiferromagnetic	-12.1675
▁antiferromagnetism	-12.1675
▁antifertiliser	-12.1675
▁antifertility	-12.1675
▁antifertilizer	-12.1675
▁antiflatulent	-12.1675
▁antifouling	-12.1675
▁antifreeze	-12.1675
▁antifriction	-12.1675
▁antifungal	-12.1675
▁antifungals	-12.1675
▁antigen	-12.1675
▁antigenic	-12.1675
▁antigenicity	-12.1675
▁antigens	-12.1675
▁antigo	-12.1675
▁antigone	-12.1675
▁antigonia	-12.1675
▁antigonus	-12.1675
▁antigorite	-12.1675
▁antigovernment	-12.1675
▁antigram	-12.1675
▁antigravities	-12.1675
▁antigravity	-12.1675
▁antigua	-12.1675
▁antiguan	-12.1675
▁antiguans	-12.1675
▁antihalation	-12.1675
▁antihelix	-12.1675
▁antiheretical	-12.1675
▁antihero	-12.1675
▁antiheroes	-12.1675
▁antiheroic	-12.1675
▁antiheroine	-12.1675
▁antiheroines	-12.1675
▁antihistamine	-12.1675
▁antihistamines	-12.1675
▁antihistaminic	-12.1675
▁antihistaminics	-12.1675
▁antihumanism	-12.1675
▁antihumanisms	-12.1675
▁antihypertensive	-12.1675
▁antihypertensives	-12.1675
▁antiknock	-12.1675
▁antilepton	-12.1675
▁antiliberal	-12.1675
▁antiliberals	-12.1675
▁antilles	-12.1675
▁antilocapra	-12.1675
▁antilocapridae	-12.1675
▁antilock	-12.1675
▁antiloemic	-12.1675
▁antilog	-12.1675
▁antilogarithm	-12.1675
▁antilogarithms	-12.1675
▁antilogism	-12.1675
▁antilogs	-12.1675
▁antilogy	-12.1675
▁antilope	-12.1675
▁antimacassar	-12.1675
▁antimacassars	-12.1675
▁antimagnetic	-12.1675
▁antimalarial	-12.1675
▁antimasque	-12.1675
▁antimatter	-12.1675
▁antimediaeval	-12.1675
▁antimediaevalism	-12.1675
▁antimediaevalist	-12.1675
▁antimediaevally	-12.1675
▁antimere	-12.1675
▁antimeson	-12.1675
▁antimetabolite	-12.1675
▁antimicrobial	-12.1675
▁antimilitarism	-12.1675
▁antimilitarisms	-12.1675
▁antimilitaristic	-12.1675
▁antimissile	-12.1675
▁antimitotic	-12.1675
▁antimitotics	-12.1675
▁antimonarchist	-12.1675
▁antimonarchists	-12.1675
▁antimonial	-12.1675
▁antimonials	-12.1675
▁antimonic	-12.1675
▁antimonopolistic	-12.1675
▁antimonopoly	-12.1675
▁antimonous	-12.1675
▁antimony	-12.1675
▁antimonyl	-12.1675
▁antimuon	-12.1675
▁antimycin	-12.1675
▁antin	-12.1675
▁antinarcotic	-12.1675
▁antinationalist	-12.1675
▁antinationalists	-12.1675
▁antinausea	-12.1675
▁antineoplastic	-12.1675
▁antineutrino	-12.1675
▁antineutron	-12.1675
▁antineutrons	-12.1675
▁anting	-12.1675
▁antinode	-12.1675
▁antinodes	-12.1675
▁antinoise	-12.1675
▁antinomasia	-12.1675
▁antinomian	-12.1675
▁antinomianism	-12.1675
▁antinomians	-12.1675
▁antinomies	-12.1675
▁antinomy	-12.1675
▁antinovel	-12.1675
▁antinovels	-12.1675
▁antinuclear	-12.1675
▁antinucleon	-12.1675
▁antioch	-12.1675
▁antiochus	-12.1675
▁antioxidant	-12.1675
▁antioxidants	-12.1675
▁antioxidiser	-12.1675
▁antioxidising	-12.1675
▁antioxidizer	-12.1675
▁antioxidizing	-12.1675
▁antipacifist	-12.1675
▁antiparallel	-12.1675
▁antiparasitic	-12.1675
▁antiparasitics	-12.1675
▁antiparticle	-12.1675
▁antiparticles	-12.1675
▁antipasti	-12.1675
▁antipasto	-12.1675
▁antipastos	-12.1675
▁antipater	-12.1675
▁antipathetic	-12.1675
▁antipathetical	-12.1675
▁antipathies	-12.1675
▁antipathise	-12.1675
▁antipathize	-12.1675
▁antipathy	-12.1675
▁antiperiodic	-12.1675
▁antiperistalsis	-12.1675
▁antipersonnel	-12.1675
▁antiperspirant	-12.1675
▁antiperspirants	-12.1675
▁antiphlogistic	-12.1675
▁antiphon	-12.1675
▁antiphonal	-12.1675
▁antiphonally	-12.1675
▁antiphonals	-12.1675
▁antiphonary	-12.1675
▁antiphonies	-12.1675
▁antiphons	-12.1675
▁antiphony	-12.1675
▁antiphrasis	-12.1675
▁antipodal	-12.1675
▁antipodals	-12.1675
▁antipode	-12.1675
▁antipodean	-12.1675
▁antipodeans	-12.1675
▁antipodes	-12.1675
▁antipole	-12.1675
▁antipoles	-12.1675
▁antipollution	-12.1675
▁antipollutions	-12.1675
▁antipope	-12.1675
▁antipopes	-12.1675
▁antipoverty	-12.1675
▁antiprohibition	-12.1675
▁antiproton	-12.1675
▁antiprotons	-12.1675
▁antiprotozoal	-12.1675
▁antipruritic	-12.1675
▁antipsychotic	-12.1675
▁antipsychotics	-12.1675
▁antipus	-12.1675
▁antipyreses	-12.1675
▁antipyresis	-12.1675
▁antipyretic	-12.1675
▁antipyretics	-12.1675
▁antipyrine	-12.1675
▁antiquarian	-12.1675
▁antiquarianise	-12.1675
▁antiquarianism	-12.1675
▁antiquarianize	-12.1675
▁antiquarians	-12.1675
▁antiquaries	-12.1675
▁antiquark	-12.1675
▁antiquary	-12.1675
▁antiquate	-12.1675
▁antiquated	-12.1675
▁antiquates	-12.1675
▁antiquating	-12.1675
▁antiquation	-12.1675
▁antiquations	-12.1675
▁antique	-12.1675
▁antiqued	-12.1675
▁antiquely	-12.1675
▁antiqueness	-12.1675
▁antiquenesses	-12.1675
▁antiquer	-12.1675
▁antiquers	-12.1675
▁antiques	-12.1675
▁antiquing	-12.1675
▁antiquities	-12.1675
▁antiquity	-12.1675
▁antirachitic	-12.1675
▁antiradical	-12.1675
▁antirational	-12.1675
▁antiredeposition	-12.1675
▁antirejection	-12.1675
▁antireligious	-12.1675
▁antirevolutionaries	-12.1675
▁antirevolutionary	-12.1675
▁antirrhinum	-12.1675
▁antirrhinums	-12.1675
▁antirumour	-12.1675
▁antis	-12.1675
▁antisana	-12.1675
▁antisatellite	-12.1675
▁antiscorbutic	-12.1675
▁antisemite	-12.1675
▁antisemitic	-12.1675
▁antisemitism	-12.1675
▁antisense	-12.1675
▁antisensitiser	-12.1675
▁antisensitizer	-12.1675
▁antisepsis	-12.1675
▁antiseptic	-12.1675
▁antiseptically	-12.1675
▁antisepticize	-12.1675
▁antisepticized	-12.1675
▁antisepticizes	-12.1675
▁antisepticizing	-12.1675
▁antiseptics	-12.1675
▁antiseptise	-12.1675
▁antiseptize	-12.1675
▁antisera	-12.1675
▁antiserum	-12.1675
▁antiserums	-12.1675
▁antislavery	-12.1675
▁antismoking	-12.1675
▁antisocial	-12.1675
▁antisocially	-12.1675
▁antispasmodic	-12.1675
▁antispasmodics	-12.1675
▁antistatic	-12.1675
▁antistatics	-12.1675
▁antisthenes	-12.1675
▁antistrophe	-12.1675
▁antistrophes	-12.1675
▁antistrophic	-12.1675
▁antisubmarine	-12.1675
▁antisymmetric	-12.1675
▁antisymmetry	-12.1675
▁antisyphilitic	-12.1675
▁antisyphon	-12.1675
▁antitakeover	-12.1675
▁antitank	-12.1675
▁antitauon	-12.1675
▁antiterrorism	-12.1675
▁antiterrorisms	-12.1675
▁antiterrorist	-12.1675
▁antiterrorists	-12.1675
▁antitheft	-12.1675
▁antitheses	-12.1675
▁antithesis	-12.1675
▁antithesise	-12.1675
▁antithesize	-12.1675
▁antithetic	-12.1675
▁antithetical	-12.1675
▁antithetically	-12.1675
▁antithyroid	-12.1675
▁antitoxic	-12.1675
▁antitoxin	-12.1675
▁antitoxins	-12.1675
▁antitrades	-12.1675
▁antitragus	-12.1675
▁antitrust	-12.1675
▁antitumor	-12.1675
▁antitussive	-12.1675
▁antitussives	-12.1675
▁antitype	-12.1675
▁antitypes	-12.1675
▁antitypic	-12.1675
▁antiunion	-12.1675
▁antivenin	-12.1675
▁antivenins	-12.1675
▁antivenom	-12.1675
▁antiviral	-12.1675
▁antivirals	-12.1675
▁antivirus	-12.1675
▁antivivisection	-12.1675
▁antivivisectionist	-12.1675
▁antivivisectionists	-12.1675
▁antivivisections	-12.1675
▁antiwar	-12.1675
▁antiworld	-12.1675
▁antler	-12.1675
▁antlered	-12.1675
▁antlers	-12.1675
▁antlia	-12.1675
▁antlion	-12.1675
▁antofagasta	-12.1675
▁antoinetta	-12.1675
▁antonchico	-12.1675
▁antonella	-12.1675
▁antonetta	-12.1675
▁antoni	-12.1675
▁antonie	-12.1675
▁antonietta	-12.1675
▁antonin	-12.1675
▁antonina	-12.1675
▁antonine	-12.1675
▁antonino	-12.1675
▁antoninus	-12.1675
▁antonio	-12.1675
▁antonito	-12.1675
▁antonomasia	-12.1675
▁antons	-12.1675
▁antony	-12.1675
▁antonym	-12.1675
▁antonymic	-12.1675
▁antonymies	-12.1675
▁antonymous	-12.1675
▁antonyms	-12.1675
▁antonymy	-12.1675
▁antra	-12.1675
▁antral	-12.1675
▁antre	-12.1675
▁antrim	-12.1675
▁antrorse	-12.1675
▁antrozous	-12.1675
▁antrum	-12.1675
▁ants	-12.1675
▁antsier	-12.1675
▁antsiest	-12.1675
▁antsy	-12.1675
▁antum	-12.1675
▁antung	-12.1675
▁antwerp	-12.1675
▁antwerpen	-12.1675
▁anu	-12.1675
▁anubis	-12.1675
▁anunnaki	-12.1675
▁anura	-12.1675
▁anuradhapura	-12.1675
▁anurag	-12.1675
▁anuran	-12.1675
▁anurans	-12.1675
▁anuresis	-12.1675
▁anuretic	-12.1675
▁anuria	-12.1675
▁anuric	-12.1675
▁anurous	-12.1675
▁anus	-12.1675
▁anuses	-12.1675
▁anuska	-12.1675
▁anvers	-12.1675
▁anvik	-12.1675
▁anvil	-12.1675
▁anvils	-12.1675
▁anxieties	-12.1675
▁anxiety	-12.1675
▁anxiolytic	-12.1675
▁anxious	-12.1675
▁anxiously	-12.1675
▁anxiousness	-12.1675
▁any	-12.1675
▁anya	-12.1675
▁anyah	-12.1675
▁anybodies	-12.1675
▁anybody	-12.1675
▁anyhow	-12.1675
▁anymore	-12.1675
▁anyone	-12.1675
▁anyplace	-12.1675
▁anything	-12.1675
▁anythings	-12.1675
▁anytime	-12.1675
▁anyway	-12.1675
▁anyways	-12.1675
▁anywhere	-12.1675
▁anywheres	-12.1675
▁anywise	-12.1675
▁anza	-12.1675
▁anzac	-12.1675
▁anzio	-12.1675
▁anzovin	-12.1675
▁anzus	-12.1675
▁anzwers	-12.1675
▁aonian	-12.1675
▁aorangi	-12.1675
▁aorist	-12.1675
▁aoristic	-12.1675
▁aorists	-12.1675
▁aorta	-12.1675
▁aortal	-12.1675
▁aortas	-12.1675
▁aortic	-12.1675
▁aortitis	-12.1675
▁aotus	-12.1675
▁aoudad	-12.1675
▁aoudads	-12.1675
▁apace	-12.1675
▁apache	-12.1675
▁apachean	-12.1675
▁apacheans	-12.1675
▁apaches	-12.1675
▁apadana	-12.1675
▁apaesthesia	-12.1675
▁apaesthetic	-12.1675
▁apalachicola	-12.1675
▁apalachin	-12.1675
▁apanage	-12.1675
▁apanages	-12.1675
▁apar	-12.1675
▁aparejo	-12.1675
▁aparri	-12.1675
▁apart	-12.1675
▁apartheid	-12.1675
▁apartment	-12.1675
▁apartments	-12.1675
▁apartness	-12.1675
▁apartnesses	-12.1675
▁apartotel	-12.1675
▁apatetic	-12.1675
▁apathetic	-12.1675
▁apathetically	-12.1675
▁apathy	-12.1675
▁apatite	-12.1675
▁apatosaur	-12.1675
▁apatosaurus	-12.1675
▁apatosauruses	-12.1675
▁apatura	-12.1675
▁ape	-12.1675
▁apeak	-12.1675
▁aped	-12.1675
▁apeldoorn	-12.1675
▁apelike	-12.1675
▁apelles	-12.1675
▁apeman	-12.1675
▁apemen	-12.1675
▁apennine	-12.1675
▁apennines	-12.1675
▁apercu	-12.1675
▁apercus	-12.1675
▁aperea	-12.1675
▁aperient	-12.1675
▁aperients	-12.1675
▁aperiodic	-12.1675
▁aperiodically	-12.1675
▁aperitif	-12.1675
▁aperitifs	-12.1675
▁apertural	-12.1675
▁aperture	-12.1675
▁apertures	-12.1675
▁apery	-12.1675
▁apes	-12.1675
▁apetalous	-12.1675
▁apex	-12.1675
▁apexed	-12.1675
▁apexes	-12.1675
▁apexing	-12.1675
▁apfel	-12.1675
▁apfelstadt	-12.1675
▁apgar	-12.1675
▁aphaeresis	-12.1675
▁aphaeretic	-12.1675
▁aphagia	-12.1675
▁aphakia	-12.1675
▁aphakic	-12.1675
▁aphaniptera	-12.1675
▁aphanite	-12.1675
▁aphanitic	-12.1675
▁aphasia	-12.1675
▁aphasiac	-12.1675
▁aphasiacs	-12.1675
▁aphasic	-12.1675
▁aphasics	-12.1675
▁aphasmidia	-12.1675
▁aphelia	-12.1675
▁aphelian	-12.1675
▁aphelion	-12.1675
▁aphelions	-12.1675
▁apheliotropic	-12.1675
▁apheresis	-12.1675
▁apheretic	-12.1675
▁aphesis	-12.1675
▁aphetic	-12.1675
▁aphetize	-12.1675
▁aphetized	-12.1675
▁aphetizes	-12.1675
▁aphetizing	-12.1675
▁aphicide	-12.1675
▁aphicides	-12.1675
▁aphid	-12.1675
▁aphides	-12.1675
▁aphididae	-12.1675
▁aphidoidea	-12.1675
▁aphids	-12.1675
▁aphis	-12.1675
▁aphonia	-12.1675
▁aphonic	-12.1675
▁aphony	-12.1675
▁aphorise	-12.1675
▁aphorised	-12.1675
▁aphorises	-12.1675
▁aphorism	-12.1675
▁aphorisms	-12.1675
▁aphorist	-12.1675
▁aphoristic	-12.1675
▁aphoristically	-12.1675
▁aphorists	-12.1675
▁aphorize	-12.1675
▁aphorized	-12.1675
▁aphorizer	-12.1675
▁aphorizers	-12.1675
▁aphorizes	-12.1675
▁aphotic	-12.1675
▁aphra	-12.1675
▁aphriza	-12.1675
▁aphrodisia	-12.1675
▁aphrodisiac	-12.1675
▁aphrodisiacal	-12.1675
▁aphrodisiacs	-12.1675
▁aphrodisian	-12.1675
▁aphrodite	-12.1675
▁aphrophora	-12.1675
▁aphtha	-12.1675
▁aphthae	-12.1675
▁aphthous	-12.1675
▁aphyllanthaceae	-12.1675
▁aphyllanthes	-12.1675
▁aphyllophorales	-12.1675
▁aphyllous	-12.1675
▁apia	-12.1675
▁apian	-12.1675
▁apiarian	-12.1675
▁apiarians	-12.1675
▁apiaries	-12.1675
▁apiarist	-12.1675
▁apiarists	-12.1675
▁apiary	-12.1675
▁apical	-12.1675
▁apically	-12.1675
▁apicella	-12.1675
▁apices	-12.1675
▁apician	-12.1675
▁apiculate	-12.1675
▁apicultural	-12.1675
▁apiculture	-12.1675
▁apicultures	-12.1675
▁apiculturist	-12.1675
▁apiculturists	-12.1675
▁apidae	-12.1675
▁apiece	-12.1675
▁aping	-12.1675
▁apios	-12.1675
▁apis	-12.1675
▁apish	-12.1675
▁apishamore	-12.1675
▁apishly	-12.1675
▁apishness	-12.1675
▁apison	-12.1675
▁apium	-12.1675
▁apivorous	-12.1675
▁aplacental	-12.1675
▁aplanat	-12.1675
▁aplanatic	-12.1675
▁aplanats	-12.1675
▁aplanospore	-12.1675
▁aplasia	-12.1675
▁aplastic	-12.1675
▁aplectrum	-12.1675
▁aplenty	-12.1675
▁aplington	-12.1675
▁aplite	-12.1675
▁aplitic	-12.1675
▁aplodontia	-12.1675
▁aplodontiidae	-12.1675
▁aplomb	-12.1675
▁aplysia	-12.1675
▁aplysiidae	-12.1675
▁apnea	-12.1675
▁apneal	-12.1675
▁apneic	-12.1675
▁apnoea	-12.1675
▁apnoeal	-12.1675
▁apnoeic	-12.1675
▁apo	-12.1675
▁apoapsis	-12.1675
▁apoc	-12.1675
▁apocalypse	-12.1675
▁apocalyptic	-12.1675
▁apocalyptical	-12.1675
▁apocalyptically	-12.1675
▁apocarp	-12.1675
▁apocarpous	-12.1675
▁apocentre	-12.1675
▁apochromatic	-12.1675
▁apocopate	-12.1675
▁apocope	-12.1675
▁apocrine	-12.1675
▁apocrypha	-12.1675
▁apocryphal	-12.1675
▁apocryphally	-12.1675
▁apocryphalness	-12.1675
▁apocryphalnesses	-12.1675
▁apocynaceae	-12.1675
▁apocynaceous	-12.1675
▁apocynthion	-12.1675
▁apocynum	-12.1675
▁apodal	-12.1675
▁apodeictic	-12.1675
▁apodeme	-12.1675
▁apodemus	-12.1675
▁apodictic	-12.1675
▁apodidae	-12.1675
▁apodiformes	-12.1675
▁apodoses	-12.1675
▁apodosis	-12.1675
▁apodous	-12.1675
▁apoenzyme	-12.1675
▁apogaeic	-12.1675
▁apogamic	-12.1675
▁apogamy	-12.1675
▁apogean	-12.1675
▁apogee	-12.1675
▁apogees	-12.1675
▁apogeic	-12.1675
▁apogeotropism	-12.1675
▁apogon	-12.1675
▁apogonidae	-12.1675
▁apograph	-12.1675
▁apoidea	-12.1675
▁apojove	-12.1675
▁apolar	-12.1675
▁apolemia	-12.1675
▁apolitical	-12.1675
▁apolitically	-12.1675
▁apollinaire	-12.1675
▁apollinarian	-12.1675
▁apollinarianism	-12.1675
▁apollinaris	-12.1675
▁apollo	-12.1675
▁apollonius	-12.1675
▁apollos	-12.1675
▁apollus	-12.1675
▁apollyon	-12.1675
▁apologete	-12.1675
▁apologetic	-12.1675
▁apologetical	-12.1675
▁apologetically	-12.1675
▁apologetics	-12.1675
▁apologia	-12.1675
▁apologias	-12.1675
▁apologies	-12.1675
▁apologise	-12.1675
▁apologised	-12.1675
▁apologises	-12.1675
▁apologising	-12.1675
▁apologist	-12.1675
▁apologists	-12.1675
▁apologize	-12.1675
▁apologized	-12.1675
▁apologizer	-12.1675
▁apologizers	-12.1675
▁apologizes	-12.1675
▁apologizing	-12.1675
▁apologue	-12.1675
▁apologues	-12.1675
▁apology	-12.1675
▁apolune	-12.1675
▁apomict	-12.1675
▁apomictic	-12.1675
▁apomicts	-12.1675
▁apomixis	-12.1675
▁apomorphine	-12.1675
▁aponeurosis	-12.1675
▁aponeurotic	-12.1675
▁apopemptic	-12.1675
▁apophasis	-12.1675
▁apophatic	-12.1675
▁apophatism	-12.1675
▁apophthegm	-12.1675
▁apophthegmatize	-12.1675
▁apophthegmatized	-12.1675
▁apophthegmatizes	-12.1675
▁apophthegmatizing	-12.1675
▁apophthegms	-12.1675
▁apophyge	-12.1675
▁apophyllite	-12.1675
▁apophyseal	-12.1675
▁apophyses	-12.1675
▁apophysis	-12.1675
▁apopka	-12.1675
▁apoplectic	-12.1675
▁apoplectically	-12.1675
▁apoplectiform	-12.1675
▁apoplexy	-12.1675
▁apoptosis	-12.1675
▁apoptotic	-12.1675
▁aporetic	-12.1675
▁aporia	-12.1675
▁aporias	-12.1675
▁aporocactus	-12.1675
▁aporrhoea	-12.1675
▁aport	-12.1675
▁aposelene	-12.1675
▁aposematic	-12.1675
▁aposiopesis	-12.1675
▁aposiopetic	-12.1675
▁apospory	-12.1675
▁apostasies	-12.1675
▁apostasy	-12.1675
▁apostate	-12.1675
▁apostates	-12.1675
▁apostatical	-12.1675
▁apostatize	-12.1675
▁apostil	-12.1675
▁apostle	-12.1675
▁apostles	-12.1675
▁apostleship	-12.1675
▁apostolate	-12.1675
▁apostolic	-12.1675
▁apostolize	-12.1675
▁apostolized	-12.1675
▁apostolizes	-12.1675
▁apostolizing	-12.1675
▁apostrophe	-12.1675
▁apostrophes	-12.1675
▁apostrophic	-12.1675
▁apostrophize	-12.1675
▁apothecaries	-12.1675
▁apothecary	-12.1675
▁apothecial	-12.1675
▁apothecium	-12.1675
▁apothegm	-12.1675
▁apothegmatic	-12.1675
▁apothegmatize	-12.1675
▁apothegmatized	-12.1675
▁apothegmatizes	-12.1675
▁apothegmatizing	-12.1675
▁apothegms	-12.1675
▁apothem	-12.1675
▁apothems	-12.1675
▁apotheoses	-12.1675
▁apotheosis	-12.1675
▁apotheosize	-12.1675
▁apotropaic	-12.1675
▁app	-12.1675
▁appal	-12.1675
▁appalachia	-12.1675
▁appalachian	-12.1675
▁appalachians	-12.1675
▁appall	-12.1675
▁appalled	-12.1675
▁appalling	-12.1675
▁appallingly	-12.1675
▁appalls	-12.1675
▁appaloosa	-12.1675
▁appaloosas	-12.1675
▁appals	-12.1675
▁appanage	-12.1675
▁appanages	-12.1675
▁apparat	-12.1675
▁apparatchik	-12.1675
▁apparatchiki	-12.1675
▁apparatchiks	-12.1675
▁apparatus	-12.1675
▁apparatuses	-12.1675
▁apparel	-12.1675
▁appareled	-12.1675
▁apparelled	-12.1675
▁apparels	-12.1675
▁apparent	-12.1675
▁apparently	-12.1675
▁apparentness	-12.1675
▁apparition	-12.1675
▁apparitional	-12.1675
▁apparitions	-12.1675
▁apparitor	-12.1675
▁appassionato	-12.1675
▁appeal	-12.1675
▁appealable	-12.1675
▁appealed	-12.1675
▁appealer	-12.1675
▁appealers	-12.1675
▁appealing	-12.1675
▁appealingly	-12.1675
▁appeals	-12.1675
▁appear	-12.1675
▁appearance	-12.1675
▁appearances	-12.1675
▁appeared	-12.1675
▁appearing	-12.1675
▁appears	-12.1675
▁appeasable	-12.1675
▁appease	-12.1675
▁appeased	-12.1675
▁appeasement	-12.1675
▁appeasements	-12.1675
▁appeaser	-12.1675
▁appeasers	-12.1675
▁appeases	-12.1675
▁appeasing	-12.1675
▁appel	-12.1675
▁appellant	-12.1675
▁appellants	-12.1675
▁appellate	-12.1675
▁appellation	-12.1675
▁appellations	-12.1675
▁appellative	-12.1675
▁appellee	-12.1675
▁appellees	-12.1675
▁append	-12.1675
▁appendage	-12.1675
▁appendaged	-12.1675
▁appendages	-12.1675
▁appendant	-12.1675
▁appendectomies	-12.1675
▁appendectomy	-12.1675
▁appended	-12.1675
▁appendicectomy	-12.1675
▁appendices	-12.1675
▁appendicitis	-12.1675
▁appendicle	-12.1675
▁appendicular	-12.1675
▁appendicularia	-12.1675
▁appending	-12.1675
▁appendix	-12.1675
▁appendixes	-12.1675
▁appends	-12.1675
▁appenzell	-12.1675
▁appenzeller	-12.1675
▁apperceive	-12.1675
▁apperception	-12.1675
▁apperceptive	-12.1675
▁appertain	-12.1675
▁appertained	-12.1675
▁appertaining	-12.1675
▁appertains	-12.1675
▁appestat	-12.1675
▁appestats	-12.1675
▁appetence	-12.1675
▁appetencies	-12.1675
▁appetency	-12.1675
▁appetent	-12.1675
▁appetiser	-12.1675
▁appetisers	-12.1675
▁appetising	-12.1675
▁appetite	-12.1675
▁appetites	-12.1675
▁appetitive	-12.1675
▁appetize	-12.1675
▁appetized	-12.1675
▁appetizement	-12.1675
▁appetizements	-12.1675
▁appetizer	-12.1675
▁appetizers	-12.1675
▁appetizes	-12.1675
▁appetizing	-12.1675
▁appetizingly	-12.1675
▁appetizingness	-12.1675
▁applaud	-12.1675
▁applaudable	-12.1675
▁applauded	-12.1675
▁applauder	-12.1675
▁applauders	-12.1675
▁applauding	-12.1675
▁applauds	-12.1675
▁applause	-12.1675
▁apple	-12.1675
▁appleby	-12.1675
▁applecart	-12.1675
▁appledorf	-12.1675
▁applegate	-12.1675
▁applejack	-12.1675
▁apples	-12.1675
▁applesauce	-12.1675
▁applet	-12.1675
▁appleton	-12.1675
▁applets	-12.1675
▁applewood	-12.1675
▁appley	-12.1675
▁appliance	-12.1675
▁appliances	-12.1675
▁applicability	-12.1675
▁applicable	-12.1675
▁applicably	-12.1675
▁applicant	-12.1675
▁applicants	-12.1675
▁application	-12.1675
▁applications	-12.1675
▁applicative	-12.1675
▁applicator	-12.1675
▁applicators	-12.1675
▁applicatory	-12.1675
▁applied	-12.1675
▁applier	-12.1675
▁appliers	-12.1675
▁applies	-12.1675
▁appling	-12.1675
▁applique	-12.1675
▁appliqued	-12.1675
▁appliqueing	-12.1675
▁appliques	-12.1675
▁apply	-12.1675
▁applying	-12.1675
▁appoggiatura	-12.1675
▁appoint	-12.1675
▁appointed	-12.1675
▁appointee	-12.1675
▁appointees	-12.1675
▁appointer	-12.1675
▁appointing	-12.1675
▁appointive	-12.1675
▁appointment	-12.1675
▁appointments	-12.1675
▁appointor	-12.1675
▁appoints	-12.1675
▁appolonia	-12.1675
▁apport	-12.1675
▁apportion	-12.1675
▁apportioned	-12.1675
▁apportioning	-12.1675
▁apportionment	-12.1675
▁apportions	-12.1675
▁apports	-12.1675
▁appose	-12.1675
▁apposed	-12.1675
▁apposes	-12.1675
▁apposing	-12.1675
▁apposite	-12.1675
▁appositely	-12.1675
▁appositeness	-12.1675
▁apposition	-12.1675
▁appositional	-12.1675
▁appositive	-12.1675
▁appositively	-12.1675
▁appositives	-12.1675
▁appraisable	-12.1675
▁appraisal	-12.1675
▁appraisals	-12.1675
▁appraise	-12.1675
▁appraised	-12.1675
▁appraisee	-12.1675
▁appraisees	-12.1675
▁appraisement	-12.1675
▁appraisements	-12.1675
▁appraiser	-12.1675
▁appraisers	-12.1675
▁appraises	-12.1675
▁appraising	-12.1675
▁appraisingly	-12.1675
▁appreciable	-12.1675
▁appreciably	-12.1675
▁appreciate	-12.1675
▁appreciated	-12.1675
▁appreciates	-12.1675
▁appreciating	-12.1675
▁appreciation	-12.1675
▁appreciations	-12.1675
▁appreciative	-12.1675
▁appreciatively	-12.1675
▁appreciator	-12.1675
▁appreciators	-12.1675
▁appreciatory	-12.1675
▁apprehend	-12.1675
▁apprehended	-12.1675
▁apprehender	-12.1675
▁apprehending	-12.1675
▁apprehends	-12.1675
▁apprehensible	-12.1675
▁apprehension	-12.1675
▁apprehensions	-12.1675
▁apprehensive	-12.1675
▁apprehensively	-12.1675
▁apprehensiveness	-12.1675
▁apprentice	-12.1675
▁apprenticed	-12.1675
▁apprentices	-12.1675
▁apprenticeship	-12.1675
▁apprenticeships	-12.1675
▁apprenticing	-12.1675
▁appress	-12.1675
▁appressed	-12.1675
▁appresses	-12.1675
▁apprisal	-12.1675
▁apprise	-12.1675
▁apprised	-12.1675
▁apprises	-12.1675
▁apprising	-12.1675
▁apprizal	-12.1675
▁apprize	-12.1675
▁apprized	-12.1675
▁apprizer	-12.1675
▁apprizers	-12.1675
▁apprizes	-12.1675
▁apprizing	-12.1675
▁apprizings	-12.1675
▁appro	-12.1675
▁approach	-12.1675
▁approachability	-12.1675
▁approachable	-12.1675
▁approached	-12.1675
▁approaches	-12.1675
▁approaching	-12.1675
▁approbate	-12.1675
▁approbation	-12.1675
▁approbative	-12.1675
▁approbatory	-12.1675
▁appropriable	-12.1675
▁appropriate	-12.1675
▁appropriated	-12.1675
▁appropriately	-12.1675
▁appropriateness	-12.1675
▁appropriates	-12.1675
▁appropriating	-12.1675
▁appropriation	-12.1675
▁appropriations	-12.1675
▁appropriative	-12.1675
▁appropriator	-12.1675
▁appropriators	-12.1675
▁approval	-12.1675
▁approvals	-12.1675
▁approve	-12.1675
▁approved	-12.1675
▁approver	-12.1675
▁approves	-12.1675
▁approving	-12.1675
▁approvingly	-12.1675
▁approximal	-12.1675
▁approximate	-12.1675
▁approximated	-12.1675
▁approximately	-12.1675
▁approximates	-12.1675
▁approximating	-12.1675
▁approximation	-12.1675
▁approximations	-12.1675
▁apps	-12.1675
▁appulse	-12.1675
▁appurtenance	-12.1675
▁appurtenances	-12.1675
▁appurtenant	-12.1675
▁apractic	-12.1675
▁apraxia	-12.1675
▁apraxic	-12.1675
▁apricot	-12.1675
▁apricots	-12.1675
▁april	-12.1675
▁aprile	-12.1675
▁aprilette	-12.1675
▁apriorism	-12.1675
▁apriorisms	-12.1675
▁apron	-12.1675
▁aproned	-12.1675
▁aprons	-12.1675
▁apropos	-12.1675
▁apsara	-12.1675
▁apsaras	-12.1675
▁apsarases	-12.1675
▁apse	-12.1675
▁apses	-12.1675
▁apsidal	-12.1675
▁apsides	-12.1675
▁apsis	-12.1675
▁apsu	-12.1675
▁apt	-12.1675
▁aptenodytes	-12.1675
▁apter	-12.1675
▁apteral	-12.1675
▁apterous	-12.1675
▁apterygial	-12.1675
▁apterygidae	-12.1675
▁apterygiformes	-12.1675
▁apterygota	-12.1675
▁apteryx	-12.1675
▁aptest	-12.1675
▁apthorp	-12.1675
▁aptitude	-12.1675
▁aptitudes	-12.1675
▁aptitudinal	-12.1675
▁aptly	-12.1675
▁aptness	-12.1675
▁aptnesses	-12.1675
▁aptos	-12.1675
▁apul	-12.1675
▁apulia	-12.1675
▁apure	-12.1675
▁apus	-12.1675
▁apyretic	-12.1675
▁aqaba	-12.1675
▁aqua	-12.1675
▁aquacade	-12.1675
▁aquacades	-12.1675
▁aquaculture	-12.1675
▁aquaculturist	-12.1675
▁aquaculturists	-12.1675
▁aqualung	-12.1675
▁aqualungs	-12.1675
▁aquamanile	-12.1675
▁aquamarine	-12.1675
▁aquamarines	-12.1675
▁aquanaut	-12.1675
▁aquanauts	-12.1675
▁aquaphobia	-12.1675
▁aquaplane	-12.1675
▁aquaplaned	-12.1675
▁aquaplanes	-12.1675
▁aquaplaning	-12.1675
▁aquarelle	-12.1675
▁aquaria	-12.1675
▁aquarian	-12.1675
▁aquarians	-12.1675
▁aquarist	-12.1675
▁aquarists	-12.1675
▁aquarium	-12.1675
▁aquariums	-12.1675
▁aquarius	-12.1675
▁aquas	-12.1675
▁aquasco	-12.1675
▁aquashicola	-12.1675
▁aquatic	-12.1675
▁aquatically	-12.1675
▁aquatics	-12.1675
▁aquatint	-12.1675
▁aquatinted	-12.1675
▁aquatinting	-12.1675
▁aquatints	-12.1675
▁aquavit	-12.1675
▁aquavits	-12.1675
▁aquebogue	-12.1675
▁aqueduct	-12.1675
▁aqueducts	-12.1675
▁aqueous	-12.1675
▁aquicultural	-12.1675
▁aquiculture	-12.1675
▁aquifer	-12.1675
▁aquiferous	-12.1675
▁aquifers	-12.1675
▁aquifoliaceae	-12.1675
▁aquila	-12.1675
▁aquilegia	-12.1675
▁aquileia	-12.1675
▁aquiline	-12.1675
▁aquilla	-12.1675
▁aquilon	-12.1675
▁aquinas	-12.1675
▁aquitaine	-12.1675
▁aquiver	-12.1675
▁aquone	-12.1675
▁arab	-12.1675
▁arabeila	-12.1675
▁arabel	-12.1675
▁arabela	-12.1675
▁arabele	-12.1675
▁arabella	-12.1675
▁arabelle	-12.1675
▁arabesque	-12.1675
▁arabesques	-12.1675
▁arabi	-12.1675
▁arabian	-12.1675
▁arabic	-12.1675
▁arabica	-12.1675
▁arabicas	-12.1675
▁arabidopsis	-12.1675
▁arability	-12.1675
▁arabinose	-12.1675
▁arabis	-12.1675
▁arabisations	-12.1675
▁arabises	-12.1675
▁arabist	-12.1675
▁arabization	-12.1675
▁arabizations	-12.1675
▁arabize	-12.1675
▁arabized	-12.1675
▁arabizes	-12.1675
▁arabizing	-12.1675
▁arable	-12.1675
▁aracari	-12.1675
▁aracaris	-12.1675
▁araceae	-12.1675
▁araceous	-12.1675
▁arachis	-12.1675
▁arachne	-12.1675
▁arachnid	-12.1675
▁arachnida	-12.1675
▁arachnidan	-12.1675
▁arachnidans	-12.1675
▁arachnids	-12.1675
▁arachnoid	-12.1675
▁arachnophobia	-12.1675
▁arad	-12.1675
▁araeometric	-12.1675
▁araeometrical	-12.1675
▁araeostyle	-12.1675
▁araeostyles	-12.1675
▁araeosystyle	-12.1675
▁arafat	-12.1675
▁arafura	-12.1675
▁aragats	-12.1675
▁aragon	-12.1675
▁aragonese	-12.1675
▁aragonite	-12.1675
▁araguaia	-12.1675
▁arak	-12.1675
▁arakawa	-12.1675
▁araks	-12.1675
▁araldite	-12.1675
▁araldo	-12.1675
▁arales	-12.1675
▁aralia	-12.1675
▁araliaceae	-12.1675
▁araliaceous	-12.1675
▁aralias	-12.1675
▁aram	-12.1675
▁aramaic	-12.1675
▁aramaism	-12.1675
▁aramanta	-12.1675
▁arame	-12.1675
▁aramean	-12.1675
▁aramen	-12.1675
▁aramenta	-12.1675
▁aramid	-12.1675
▁aramids	-12.1675
▁araminta	-12.1675
▁aramis	-12.1675
▁aramus	-12.1675
▁aran	-12.1675
▁arand	-12.1675
▁aranea	-12.1675
▁araneae	-12.1675
▁araneid	-12.1675
▁araneida	-12.1675
▁araneidal	-12.1675
▁araneids	-12.1675
▁aranyaka	-12.1675
▁arapaho	-12.1675
▁arapaima	-12.1675
▁arapaimas	-12.1675
▁ararat	-12.1675
▁arariba	-12.1675
▁araroba	-12.1675
▁aras	-12.1675
▁arathorn	-12.1675
▁arational	-12.1675
▁arauca	-12.1675
▁araucania	-12.1675
▁araucaria	-12.1675
▁araucariaceae	-12.1675
▁araujia	-12.1675
▁arawak	-12.1675
▁arawakan	-12.1675
▁arawakans	-12.1675
▁arawaks	-12.1675
▁arawn	-12.1675
▁araxes	-12.1675
▁arb	-12.1675
▁arbalest	-12.1675
▁arbalester	-12.1675
▁arbalestre	-12.1675
▁arbalests	-12.1675
▁arbe	-12.1675
▁arbela	-12.1675
▁arber	-12.1675
▁arbil	-12.1675
▁arbiter	-12.1675
▁arbiters	-12.1675
▁arbitrable	-12.1675
▁arbitrage	-12.1675
▁arbitraged	-12.1675
▁arbitrager	-12.1675
▁arbitragers	-12.1675
▁arbitrages	-12.1675
▁arbitrageur	-12.1675
▁arbitrageurs	-12.1675
▁arbitraging	-12.1675
▁arbitral	-12.1675
▁arbitrament	-12.1675
▁arbitraments	-12.1675
▁arbitrarily	-12.1675
▁arbitrariness	-12.1675
▁arbitrary	-12.1675
▁arbitrate	-12.1675
▁arbitrated	-12.1675
▁arbitrates	-12.1675
▁arbitrating	-12.1675
▁arbitration	-12.1675
▁arbitrative	-12.1675
▁arbitrator	-12.1675
▁arbitrators	-12.1675
▁arbitress	-12.1675
▁arblast	-12.1675
▁arblasts	-12.1675
▁arboles	-12.1675
▁arbon	-12.1675
▁arbor	-12.1675
▁arboraceous	-12.1675
▁arboreal	-12.1675
▁arbored	-12.1675
▁arboreous	-12.1675
▁arborescent	-12.1675
▁arboreta	-12.1675
▁arboretum	-12.1675
▁arboretums	-12.1675
▁arborical	-12.1675
▁arboricultural	-12.1675
▁arboriculture	-12.1675
▁arboricultures	-12.1675
▁arboriculturist	-12.1675
▁arboriculturists	-12.1675
▁arboring	-12.1675
▁arborist	-12.1675
▁arborists	-12.1675
▁arborizations	-12.1675
▁arborize	-12.1675
▁arborized	-12.1675
▁arborizes	-12.1675
▁arborizing	-12.1675
▁arborolatry	-12.1675
▁arbors	-12.1675
▁arborvitae	-12.1675
▁arborvitaes	-12.1675
▁arbour	-12.1675
▁arboured	-12.1675
▁arbours	-12.1675
▁arbovale	-12.1675
▁arbovirus	-12.1675
▁arboviruses	-12.1675
▁arbroath	-12.1675
▁arbs	-12.1675
▁arbuckle	-12.1675
▁arbuthnot	-12.1675
▁arbutus	-12.1675
▁arbutuses	-12.1675
▁arbyrd	-12.1675
▁arc	-12.1675
▁arca	-12.1675
▁arcade	-12.1675
▁arcaded	-12.1675
▁arcades	-12.1675
▁arcadia	-12.1675
▁arcadian	-12.1675
▁arcadians	-12.1675
▁arcadias	-12.1675
▁arcadic	-12.1675
▁arcading	-12.1675
▁arcadings	-12.1675
▁arcady	-12.1675
▁arcana	-12.1675
▁arcanas	-12.1675
▁arcane	-12.1675
▁arcanely	-12.1675
▁arcaneness	-12.1675
▁arcanum	-12.1675
▁arcanums	-12.1675
▁arcata	-12.1675
▁arcature	-12.1675
▁arced	-12.1675
▁arcella	-12.1675
▁arcellidae	-12.1675
▁arceuthobium	-12.1675
▁arch	-12.1675
▁archae	-12.1675
▁archaea	-12.1675
▁archaeal	-12.1675
▁archaean	-12.1675
▁archaebacteria	-12.1675
▁archaei	-12.1675
▁archaeoastronomies	-12.1675
▁archaeoastronomy	-12.1675
▁archaeocyte	-12.1675
▁archaeolithic	-12.1675
▁archaeologian	-12.1675
▁archaeological	-12.1675
▁archaeologically	-12.1675
▁archaeologies	-12.1675
▁archaeologist	-12.1675
▁archaeologists	-12.1675
▁archaeology	-12.1675
▁archaeometries	-12.1675
▁archaeometry	-12.1675
▁archaeopteryx	-12.1675
▁archaeornis	-12.1675
▁archaeornithes	-12.1675
▁archaeozoic	-12.1675
▁archaeus	-12.1675
▁archaic	-12.1675
▁archaically	-12.1675
▁archaimbaud	-12.1675
▁archaise	-12.1675
▁archaised	-12.1675
▁archaises	-12.1675
▁archaism	-12.1675
▁archaisms	-12.1675
▁archaist	-12.1675
▁archaistic	-12.1675
▁archaists	-12.1675
▁archaize	-12.1675
▁archaized	-12.1675
▁archaizer	-12.1675
▁archaizers	-12.1675
▁archaizes	-12.1675
▁archaizing	-12.1675
▁archambault	-12.1675
▁archangel	-12.1675
▁archangelic	-12.1675
▁archangelical	-12.1675
▁archangels	-12.1675
▁archbald	-12.1675
▁archbishop	-12.1675
▁archbishopric	-12.1675
▁archbishoprics	-12.1675
▁archbishops	-12.1675
▁archbold	-12.1675
▁archcape	-12.1675
▁archconservative	-12.1675
▁archconservatives	-12.1675
▁archdeacon	-12.1675
▁archdeaconate	-12.1675
▁archdeaconates	-12.1675
▁archdeaconries	-12.1675
▁archdeaconry	-12.1675
▁archdeacons	-12.1675
▁archdiocesan	-12.1675
▁archdiocese	-12.1675
▁archdioceses	-12.1675
▁archducal	-12.1675
▁archduchess	-12.1675
▁archduchesses	-12.1675
▁archduchies	-12.1675
▁archduchy	-12.1675
▁archduke	-12.1675
▁archdukes	-12.1675
▁archeal	-12.1675
▁archean	-12.1675
▁arched	-12.1675
▁archegonial	-12.1675
▁archegoniatae	-12.1675
▁archegonium	-12.1675
▁archenemies	-12.1675
▁archenemy	-12.1675
▁archenteron	-12.1675
▁archeoastronomies	-12.1675
▁archeoastronomy	-12.1675
▁archeological	-12.1675
▁archeologies	-12.1675
▁archeologist	-12.1675
▁archeologists	-12.1675
▁archeology	-12.1675
▁archeometries	-12.1675
▁archeometry	-12.1675
▁archeozoic	-12.1675
▁archer	-12.1675
▁archerfish	-12.1675
▁archers	-12.1675
▁archery	-12.1675
▁arches	-12.1675
▁archespore	-12.1675
▁archesporial	-12.1675
▁archest	-12.1675
▁archetypal	-12.1675
▁archetype	-12.1675
▁archetypes	-12.1675
▁archetypic	-12.1675
▁archetypical	-12.1675
▁archeus	-12.1675
▁archfiend	-12.1675
▁archfiends	-12.1675
▁archiannelid	-12.1675
▁archiannelida	-12.1675
▁archibaldo	-12.1675
▁archibold	-12.1675
▁archicarp	-12.1675
▁archichlamydeae	-12.1675
▁archidiaconal	-12.1675
▁archidiaconate	-12.1675
▁archidiskidon	-12.1675
▁archiepiscopacy	-12.1675
▁archiepiscopal	-12.1675
▁archiepiscopate	-12.1675
▁archil	-12.1675
▁archilochian	-12.1675
▁archilochus	-12.1675
▁archimage	-12.1675
▁archimandrite	-12.1675
▁archimandrites	-12.1675
▁archimedean	-12.1675
▁archimedes	-12.1675
▁archine	-12.1675
▁arching	-12.1675
▁archipallium	-12.1675
▁archipelagic	-12.1675
▁archipelago	-12.1675
▁archipelagoes	-12.1675
▁archipelagos	-12.1675
▁archipenko	-12.1675
▁archiphoneme	-12.1675
▁archiplasm	-12.1675
▁architect	-12.1675
▁architectonic	-12.1675
▁architectonically	-12.1675
▁architectonics	-12.1675
▁architects	-12.1675
▁architectural	-12.1675
▁architecturally	-12.1675
▁architecture	-12.1675
▁architectures	-12.1675
▁architeuthis	-12.1675
▁architrave	-12.1675
▁architraves	-12.1675
▁archival	-12.1675
▁archive	-12.1675
▁archived	-12.1675
▁archiveorg	-12.1675
▁archives	-12.1675
▁archiving	-12.1675
▁archivist	-12.1675
▁archivists	-12.1675
▁archivolt	-12.1675
▁archle	-12.1675
▁archlute	-12.1675
▁archlutes	-12.1675
▁archly	-12.1675
▁archness	-12.1675
▁archon	-12.1675
▁archons	-12.1675
▁archoplasm	-12.1675
▁archosargus	-12.1675
▁archosaur	-12.1675
▁archosauria	-12.1675
▁archosaurian	-12.1675
▁archpriest	-12.1675
▁archrival	-12.1675
▁archrivals	-12.1675
▁archway	-12.1675
▁archways	-12.1675
▁archy	-12.1675
▁arcidae	-12.1675
▁arciform	-12.1675
▁arcing	-12.1675
▁arco	-12.1675
▁arcograph	-12.1675
▁arcola	-12.1675
▁arcology	-12.1675
▁arcs	-12.1675
▁arctic	-12.1675
▁arcticise	-12.1675
▁arcticize	-12.1675
▁arctics	-12.1675
▁arctictis	-12.1675
▁arctiid	-12.1675
▁arctiidae	-12.1675
▁arctium	-12.1675
▁arctocebus	-12.1675
▁arctocephalus	-12.1675
▁arctonyx	-12.1675
▁arctostaphylos	-12.1675
▁arctotis	-12.1675
▁arcturus	-12.1675
▁arcuate	-12.1675
▁arcuation	-12.1675
▁arcus	-12.1675
▁ard	-12.1675
▁arda	-12.1675
▁ardara	-12.1675
▁ardath	-12.1675
▁arde	-12.1675
▁ardea	-12.1675
▁ardeb	-12.1675
▁ardeche	-12.1675
▁ardeen	-12.1675
▁ardeha	-12.1675
▁ardehs	-12.1675
▁ardeidae	-12.1675
▁ardel	-12.1675
▁ardelia	-12.1675
▁ardelis	-12.1675
▁ardell	-12.1675
▁ardella	-12.1675
▁ardelle	-12.1675
▁ardencies	-12.1675
▁ardency	-12.1675
▁ardene	-12.1675
▁ardenia	-12.1675
▁ardennes	-12.1675
▁ardent	-12.1675
▁ardently	-12.1675
▁ardenvoir	-12.1675
▁ardeth	-12.1675
▁ardie	-12.1675
▁ardin	-12.1675
▁ardine	-12.1675
▁ardis	-12.1675
▁ardisia	-12.1675
▁ardisj	-12.1675
▁ardith	-12.1675
▁ardme	-12.1675
▁ardmore	-12.1675
▁ardoch	-12.1675
▁ardolino	-12.1675
▁ardor	-12.1675
▁ardour	-12.1675
▁ardra	-12.1675
▁ardrey	-12.1675
▁ards	-12.1675
▁ardsley	-12.1675
▁arduous	-12.1675
▁arduously	-12.1675
▁arduousness	-12.1675
▁ardussi	-12.1675
▁ardy	-12.1675
▁ardyce	-12.1675
▁ardys	-12.1675
▁ardyth	-12.1675
▁are	-12.1675
▁area	-12.1675
▁aready	-12.1675
▁areal	-12.1675
▁areas	-12.1675
▁areaway	-12.1675
▁areaways	-12.1675
▁areca	-12.1675
▁arecas	-12.1675
▁arecibo	-12.1675
▁arecidae	-12.1675
▁aredale	-12.1675
▁areflexia	-12.1675
▁areg	-12.1675
▁areic	-12.1675
▁arel	-12.1675
▁arela	-12.1675
▁arella	-12.1675
▁arelus	-12.1675
▁arena	-12.1675
▁arenaceous	-12.1675
▁arenaria	-12.1675
▁arenas	-12.1675
▁arenaviridae	-12.1675
▁arenavirus	-12.1675
▁arendt	-12.1675
▁arendtsville	-12.1675
▁arenga	-12.1675
▁arenicolour	-12.1675
▁arenicolous	-12.1675
▁arenzville	-12.1675
▁areographer	-12.1675
▁areographic	-12.1675
▁areographical	-12.1675
▁areographies	-12.1675
▁areola	-12.1675
▁areolae	-12.1675
▁areolar	-12.1675
▁areolas	-12.1675
▁areolate	-12.1675
▁areole	-12.1675
▁areoles	-12.1675
▁areologic	-12.1675
▁areological	-12.1675
▁areologies	-12.1675
▁areologist	-12.1675
▁areology	-12.1675
▁areometric	-12.1675
▁areometrical	-12.1675
▁areopagite	-12.1675
▁areopagus	-12.1675
▁areostyle	-12.1675
▁areostyles	-12.1675
▁areosystyle	-12.1675
▁arequipa	-12.1675
▁ares	-12.1675
▁aret	-12.1675
▁areta	-12.1675
▁arete	-12.1675
▁aretes	-12.1675
▁aretha	-12.1675
▁arethusa	-12.1675
▁aretina	-12.1675
▁aretinian	-12.1675
▁aretino	-12.1675
▁aretta	-12.1675
▁arette	-12.1675
▁arezzini	-12.1675
▁arezzo	-12.1675
▁arf	-12.1675
▁arg	-12.1675
▁argal	-12.1675
▁argali	-12.1675
▁argan	-12.1675
▁argans	-12.1675
▁argasidae	-12.1675
▁argent	-12.1675
▁argenta	-12.1675
▁argenteuil	-12.1675
▁argentic	-12.1675
▁argentiferous	-12.1675
▁argentina	-12.1675
▁argentine	-12.1675
▁argentinian	-12.1675
▁argentinidae	-12.1675
▁argentino	-12.1675
▁argentinosaur	-12.1675
▁argentite	-12.1675
▁argentites	-12.1675
▁argentous	-12.1675
▁argentum	-12.1675
▁argestes	-12.1675
▁argh	-12.1675
▁argil	-12.1675
▁argile	-12.1675
▁argillaceous	-12.1675
▁argilliferous	-12.1675
▁argillite	-12.1675
▁arginine	-12.1675
▁argiope	-12.1675
▁argiopidae	-12.1675
▁argive	-12.1675
▁argo	-12.1675
▁argol	-12.1675
▁argolis	-12.1675
▁argon	-12.1675
▁argonaut	-12.1675
▁argonauta	-12.1675
▁argonautidae	-12.1675
▁argonauts	-12.1675
▁argonia	-12.1675
▁argos	-12.1675
▁argosies	-12.1675
▁argosy	-12.1675
▁argot	-12.1675
▁argots	-12.1675
▁arguable	-12.1675
▁arguably	-12.1675
▁argue	-12.1675
▁argued	-12.1675
▁arguer	-12.1675
▁arguers	-12.1675
▁argues	-12.1675
▁argufied	-12.1675
▁argufies	-12.1675
▁argufy	-12.1675
▁argufying	-12.1675
▁arguing	-12.1675
▁argument	-12.1675
▁argumentation	-12.1675
▁argumentative	-12.1675
▁argumentatively	-12.1675
▁argumentativeness	-12.1675
▁argumentive	-12.1675
▁arguments	-12.1675
▁argumentum	-12.1675
▁argun	-12.1675
▁argus	-12.1675
▁arguses	-12.1675
▁argusianus	-12.1675
▁argusville	-12.1675
▁argute	-12.1675
▁argyle	-12.1675
▁argyles	-12.1675
▁argyll	-12.1675
▁argyllshire	-12.1675
▁argynnis	-12.1675
▁argyranthemum	-12.1675
▁argyreia	-12.1675
▁argyres	-12.1675
▁argyrodite	-12.1675
▁argyrol	-12.1675
▁argyrotaenia	-12.1675
▁argyroxiphium	-12.1675
▁arhat	-12.1675
▁arhats	-12.1675
▁arhna	-12.1675
▁arhus	-12.1675
▁arhythmic	-12.1675
▁ari	-12.1675
▁aria	-12.1675
▁ariadne	-12.1675
▁arian	-12.1675
▁ariana	-12.1675
▁ariane	-12.1675
▁arianie	-12.1675
▁arianism	-12.1675
▁arianist	-12.1675
▁arianna	-12.1675
▁arianne	-12.1675
▁arianrhod	-12.1675
▁arias	-12.1675
▁aribold	-12.1675
▁aric	-12.1675
▁arica	-12.1675
▁arick	-12.1675
▁arid	-12.1675
▁aridatha	-12.1675
▁arider	-12.1675
▁aridest	-12.1675
▁aridisol	-12.1675
▁aridisols	-12.1675
▁aridities	-12.1675
▁aridity	-12.1675
▁aridly	-12.1675
▁aridness	-12.1675
▁aridnesses	-12.1675
▁arie	-12.1675
▁ariege	-12.1675
▁ariel	-12.1675
▁ariela	-12.1675
▁ariella	-12.1675
▁arielle	-12.1675
▁ariels	-12.1675
▁aries	-12.1675
▁arietta	-12.1675
▁ariew	-12.1675
▁aright	-12.1675
▁ariidae	-12.1675
▁arikara	-12.1675
▁aril	-12.1675
▁ariled	-12.1675
▁arillate	-12.1675
▁arillode	-12.1675
▁arils	-12.1675
▁arilus	-12.1675
▁arimasp	-12.1675
▁arimaspian	-12.1675
▁ariminum	-12.1675
▁arimo	-12.1675
▁arin	-12.1675
▁ario	-12.1675
▁ariocarpus	-12.1675
▁ariomma	-12.1675
▁arion	-12.1675
▁ariose	-12.1675
▁arioso	-12.1675
▁ariosos	-12.1675
▁aripeka	-12.1675
▁arisaema	-12.1675
▁arisarum	-12.1675
▁arise	-12.1675
▁arisen	-12.1675
▁arises	-12.1675
▁arising	-12.1675
▁arisings	-12.1675
▁arispe	-12.1675
▁arissa	-12.1675
▁arista	-12.1675
▁aristae	-12.1675
▁aristaeus	-12.1675
▁aristarch	-12.1675
▁aristarchus	-12.1675
▁aristate	-12.1675
▁ariste	-12.1675
▁aristes	-12.1675
▁aristippus	-12.1675
▁aristo	-12.1675
▁aristocracies	-12.1675
▁aristocracy	-12.1675
▁aristocrat	-12.1675
▁aristocratic	-12.1675
▁aristocratically	-12.1675
▁aristocrats	-12.1675
▁aristolochia	-12.1675
▁aristolochiaceae	-12.1675
▁aristolochiales	-12.1675
▁aristophanes	-12.1675
▁aristos	-12.1675
▁aristotelia	-12.1675
▁aristotelian	-12.1675
▁aristotelianism	-12.1675
▁aristotelians	-12.1675
▁aristotelism	-12.1675
▁aristotle	-12.1675
▁aristotles	-12.1675
▁aristotless	-12.1675
▁arita	-12.1675
▁arithmancy	-12.1675
▁arithmetic	-12.1675
▁arithmetical	-12.1675
▁arithmetically	-12.1675
▁arithmetician	-12.1675
▁arithmeticians	-12.1675
▁arithmetisation	-12.1675
▁arithmetisations	-12.1675
▁arithmetise	-12.1675
▁arithmetised	-12.1675
▁arithmetises	-12.1675
▁arithmetization	-12.1675
▁arithmetizations	-12.1675
▁arithmetize	-12.1675
▁arithmetized	-12.1675
▁arithmetizes	-12.1675
▁arithmomancy	-12.1675
▁ariton	-12.1675
▁arity	-12.1675
▁arius	-12.1675
▁arivaca	-12.1675
▁arizona	-12.1675
▁arizonan	-12.1675
▁arjan	-12.1675
▁arjay	-12.1675
▁arjun	-12.1675
▁arjuna	-12.1675
▁ark	-12.1675
▁arkabutla	-12.1675
▁arkadelphia	-12.1675
▁arkansan	-12.1675
▁arkansas	-12.1675
▁arkansaw	-12.1675
▁arkdale	-12.1675
▁arkite	-12.1675
▁arkoma	-12.1675
▁arkose	-12.1675
▁arkosic	-12.1675
▁arkport	-12.1675
▁arks	-12.1675
▁arkville	-12.1675
▁arlan	-12.1675
▁arlana	-12.1675
▁arlberg	-12.1675
▁arlee	-12.1675
▁arleen	-12.1675
▁arlen	-12.1675
▁arlena	-12.1675
▁arles	-12.1675
▁arleta	-12.1675
▁arlette	-12.1675
▁arley	-12.1675
▁arleyne	-12.1675
▁arlie	-12.1675
▁arliene	-12.1675
▁arlin	-12.1675
▁arlina	-12.1675
▁arlinda	-12.1675
▁arlington	-12.1675
▁arlo	-12.1675
▁arlon	-12.1675
▁arlott	-12.1675
▁arluene	-12.1675
▁arly	-12.1675
▁arlyn	-12.1675
▁arlyne	-12.1675
▁arlynne	-12.1675
▁arm	-12.1675
▁arma	-12.1675
▁armada	-12.1675
▁armadas	-12.1675
▁armadillidiidae	-12.1675
▁armadillidium	-12.1675
▁armadillo	-12.1675
▁armadillos	-12.1675
▁armageddon	-12.1675
▁armagh	-12.1675
▁armagnac	-12.1675
▁armalda	-12.1675
▁armalite	-12.1675
▁armalla	-12.1675
▁armallas	-12.1675
▁armament	-12.1675
▁armamentarium	-12.1675
▁armaments	-12.1675
▁arman	-12.1675
▁armanda	-12.1675
▁armature	-12.1675
▁armatured	-12.1675
▁armatures	-12.1675
▁armaturing	-12.1675
▁armband	-12.1675
▁armbands	-12.1675
▁armbrecht	-12.1675
▁armbrust	-12.1675
▁armbruster	-12.1675
▁armchair	-12.1675
▁armchairs	-12.1675
▁armd	-12.1675
▁armed	-12.1675
▁armelda	-12.1675
▁armenia	-12.1675
▁armenian	-12.1675
▁armenoid	-12.1675
▁armentieres	-12.1675
▁armeria	-12.1675
▁armet	-12.1675
▁armful	-12.1675
▁armfuls	-12.1675
▁armhole	-12.1675
▁armholes	-12.1675
▁armies	-12.1675
▁armiger	-12.1675
▁armigers	-12.1675
▁armil	-12.1675
▁armilda	-12.1675
▁armilla	-12.1675
▁armillaria	-12.1675
▁armillariella	-12.1675
▁armillary	-12.1675
▁armillas	-12.1675
▁armillda	-12.1675
▁armillia	-12.1675
▁armin	-12.1675
▁arming	-12.1675
▁armington	-12.1675
▁arminian	-12.1675
▁arminianism	-12.1675
▁arminius	-12.1675
▁armipotent	-12.1675
▁armistice	-12.1675
▁armistices	-12.1675
▁armitage	-12.1675
▁armless	-12.1675
▁armlet	-12.1675
▁armlets	-12.1675
▁armlike	-12.1675
▁armload	-12.1675
▁armloads	-12.1675
▁armlock	-12.1675
▁armlocks	-12.1675
▁armoire	-12.1675
▁armoires	-12.1675
▁armona	-12.1675
▁armond	-12.1675
▁armor	-12.1675
▁armoracia	-12.1675
▁armorbearer	-12.1675
▁armored	-12.1675
▁armorel	-12.1675
▁armorer	-12.1675
▁armorers	-12.1675
▁armorial	-12.1675
▁armories	-12.1675
▁armorless	-12.1675
▁armory	-12.1675
▁armour	-12.1675
▁armourbearer	-12.1675
▁armoured	-12.1675
▁armourer	-12.1675
▁armourers	-12.1675
▁armouried	-12.1675
▁armouries	-12.1675
▁armouring	-12.1675
▁armourless	-12.1675
▁armours	-12.1675
▁armoury	-12.1675
▁armpit	-12.1675
▁armpits	-12.1675
▁armrest	-12.1675
▁armrests	-12.1675
▁arms	-12.1675
▁armstrong	-12.1675
▁armuchee	-12.1675
▁armure	-12.1675
▁army	-12.1675
▁armyn	-12.1675
▁armyworm	-12.1675
▁armyworms	-12.1675
▁arnaldo	-12.1675
▁arnaud	-12.1675
▁arnaudville	-12.1675
▁arnaut	-12.1675
▁arndt	-12.1675
▁arnegard	-12.1675
▁arnelle	-12.1675
▁arnett	-12.1675
▁arney	-12.1675
▁arnhem	-12.1675
▁arni	-12.1675
▁arnica	-12.1675
▁arnicas	-12.1675
▁arnie	-12.1675
▁arno	-12.1675
▁arnold	-12.1675
▁arnoldo	-12.1675
▁arnoldsburg	-12.1675
▁arnoldsville	-12.1675
▁arnon	-12.1675
▁arnoseris	-12.1675
▁arnot	-12.1675
▁arnst	-12.1675
▁arnuad	-12.1675
▁arny	-12.1675
▁arock	-12.1675
▁aroda	-12.1675
▁aroha	-12.1675
▁aroid	-12.1675
▁aroids	-12.1675
▁arola	-12.1675
▁arolla	-12.1675
▁arollas	-12.1675
▁aroma	-12.1675
▁aromas	-12.1675
▁aromatherapist	-12.1675
▁aromatherapists	-12.1675
▁aromatherapy	-12.1675
▁aromatic	-12.1675
▁aromatically	-12.1675
▁aromaticities	-12.1675
▁aromaticity	-12.1675
▁aromatics	-12.1675
▁aromatise	-12.1675
▁aromatiser	-12.1675
▁aromatitae	-12.1675
▁aromatization	-12.1675
▁aromatize	-12.1675
▁aromatized	-12.1675
▁aromatizer	-12.1675
▁aromatizes	-12.1675
▁aromatizing	-12.1675
▁arona	-12.1675
▁arondel	-12.1675
▁arondell	-12.1675
▁aronoff	-12.1675
▁aronow	-12.1675
▁aronson	-12.1675
▁aroostook	-12.1675
▁arose	-12.1675
▁arouet	-12.1675
▁around	-12.1675
▁arousable	-12.1675
▁arousal	-12.1675
▁arousals	-12.1675
▁arouse	-12.1675
▁aroused	-12.1675
▁arouses	-12.1675
▁arousing	-12.1675
▁arp	-12.1675
▁arpanet	-12.1675
▁arpeggiate	-12.1675
▁arpeggiated	-12.1675
▁arpeggiates	-12.1675
▁arpeggiating	-12.1675
▁arpeggiation	-12.1675
▁arpeggiations	-12.1675
▁arpeggio	-12.1675
▁arpeggios	-12.1675
▁arpens	-12.1675
▁arpent	-12.1675
▁arpin	-12.1675
▁arquebus	-12.1675
▁arquit	-12.1675
▁arquitectura	-12.1675
▁arrack	-12.1675
▁arracks	-12.1675
▁arrah	-12.1675
▁arraign	-12.1675
▁arraigned	-12.1675
▁arraigning	-12.1675
▁arraignment	-12.1675
▁arraignments	-12.1675
▁arraigns	-12.1675
▁arran	-12.1675
▁arrange	-12.1675
▁arrangeable	-12.1675
▁arranged	-12.1675
▁arrangement	-12.1675
▁arrangements	-12.1675
▁arranger	-12.1675
▁arrangers	-12.1675
▁arranges	-12.1675
▁arranging	-12.1675
▁arrant	-12.1675
▁arrantest	-12.1675
▁arrantly	-12.1675
▁arras	-12.1675
▁arrases	-12.1675
▁arratoon	-12.1675
▁arrau	-12.1675
▁array	-12.1675
▁arrayed	-12.1675
▁arraying	-12.1675
▁arrays	-12.1675
▁arre	-12.1675
▁arrear	-12.1675
▁arrearage	-12.1675
▁arrearages	-12.1675
▁arrears	-12.1675
▁arrest	-12.1675
▁arrestable	-12.1675
▁arrested	-12.1675
▁arrestee	-12.1675
▁arrestees	-12.1675
▁arrester	-12.1675
▁arresters	-12.1675
▁arresting	-12.1675
▁arrestment	-12.1675
▁arrestor	-12.1675
▁arrestors	-12.1675
▁arrests	-12.1675
▁arrey	-12.1675
▁arrhenatherum	-12.1675
▁arrhenius	-12.1675
▁arrhythmia	-12.1675
▁arrhythmic	-12.1675
▁arrhythmical	-12.1675
▁arri	-12.1675
▁arria	-12.1675
▁arriba	-12.1675
▁arrington	-12.1675
▁arrio	-12.1675
▁arris	-12.1675
▁arrises	-12.1675
▁arrival	-12.1675
▁arrivals	-12.1675
▁arrive	-12.1675
▁arrived	-12.1675
▁arrivederci	-12.1675
▁arrives	-12.1675
▁arriving	-12.1675
▁arrivisme	-12.1675
▁arriviste	-12.1675
▁arrivistes	-12.1675
▁arroba	-12.1675
▁arrogance	-12.1675
▁arrogant	-12.1675
▁arrogantly	-12.1675
▁arrogate	-12.1675
▁arrogated	-12.1675
▁arrogates	-12.1675
▁arrogating	-12.1675
▁arrogation	-12.1675
▁arrogative	-12.1675
▁arrogator	-12.1675
▁arrondissement	-12.1675
▁arrow	-12.1675
▁arrowed	-12.1675
▁arrowhead	-12.1675
▁arrowheads	-12.1675
▁arrowing	-12.1675
▁arrowroot	-12.1675
▁arrows	-12.1675
▁arrowsmith	-12.1675
▁arrowwood	-12.1675
▁arrowworm	-12.1675
▁arrowy	-12.1675
▁arroyo	-12.1675
▁arroyos	-12.1675
▁arroz	-12.1675
▁arsacidean	-12.1675
▁arsacides	-12.1675
▁arse	-12.1675
▁arsed	-12.1675
▁arsehole	-12.1675
▁arseholes	-12.1675
▁arsenal	-12.1675
▁arsenals	-12.1675
▁arsenate	-12.1675
▁arsenates	-12.1675
▁arsenic	-12.1675
▁arsenical	-12.1675
▁arsenicals	-12.1675
▁arsenicise	-12.1675
▁arsenicize	-12.1675
▁arsenide	-12.1675
▁arsenides	-12.1675
▁arsenious	-12.1675
▁arsenite	-12.1675
▁arsenopyrite	-12.1675
▁arses	-12.1675
▁arsey	-12.1675
▁arsier	-12.1675
▁arsiest	-12.1675
▁arsine	-12.1675
▁arsing	-12.1675
▁arsis	-12.1675
▁arson	-12.1675
▁arsonist	-12.1675
▁arsonists	-12.1675
▁arsphenamine	-12.1675
▁arst	-12.1675
▁art	-12.1675
▁arta	-12.1675
▁artair	-12.1675
▁artamas	-12.1675
▁artamidae	-12.1675
▁artamus	-12.1675
▁artas	-12.1675
▁arte	-12.1675
▁artedi	-12.1675
▁artefact	-12.1675
▁artefacts	-12.1675
▁artefactual	-12.1675
▁artegal	-12.1675
▁artel	-12.1675
▁arteli	-12.1675
▁artels	-12.1675
▁artema	-12.1675
▁artemas	-12.1675
▁artemia	-12.1675
▁artemis	-12.1675
▁artemisa	-12.1675
▁artemisia	-12.1675
▁artemus	-12.1675
▁arterial	-12.1675
▁arterialization	-12.1675
▁arterializations	-12.1675
▁arterialize	-12.1675
▁arterialized	-12.1675
▁arterializes	-12.1675
▁arterializing	-12.1675
▁arteriectasis	-12.1675
▁arteries	-12.1675
▁arteriogram	-12.1675
▁arteriography	-12.1675
▁arteriolar	-12.1675
▁arteriole	-12.1675
▁arterioles	-12.1675
▁arteriolosclerosis	-12.1675
▁arteriosclerosis	-12.1675
▁arteriosclerotic	-12.1675
▁arteriosclerotics	-12.1675
▁arteriotomy	-12.1675
▁arteriovenous	-12.1675
▁arteritis	-12.1675
▁artery	-12.1675
▁artesia	-12.1675
▁artesian	-12.1675
▁artex	-12.1675
▁artful	-12.1675
▁artfully	-12.1675
▁artfulness	-12.1675
▁arther	-12.1675
▁arthralgia	-12.1675
▁arthralgic	-12.1675
▁arthritic	-12.1675
▁arthritics	-12.1675
▁arthritides	-12.1675
▁arthritis	-12.1675
▁arthrocentesis	-12.1675
▁arthrodesis	-12.1675
▁arthroempyesis	-12.1675
▁arthrogram	-12.1675
▁arthrography	-12.1675
▁arthromere	-12.1675
▁arthromeric	-12.1675
▁arthropathy	-12.1675
▁arthroplasty	-12.1675
▁arthropod	-12.1675
▁arthropoda	-12.1675
▁arthropodal	-12.1675
▁arthropods	-12.1675
▁arthropteris	-12.1675
▁arthroscope	-12.1675
▁arthroscopes	-12.1675
▁arthroscopic	-12.1675
▁arthroscopies	-12.1675
▁arthroscopy	-12.1675
▁arthrospore	-12.1675
▁arthrosporic	-12.1675
▁arthur	-12.1675
▁arthurdale	-12.1675
▁arthurian	-12.1675
▁arthuriana	-12.1675
▁artic	-12.1675
▁artichoke	-12.1675
▁artichokes	-12.1675
▁article	-12.1675
▁articled	-12.1675
▁articles	-12.1675
▁articling	-12.1675
▁artics	-12.1675
▁articulable	-12.1675
▁articulacies	-12.1675
▁articulacy	-12.1675
▁articular	-12.1675
▁articulata	-12.1675
▁articulate	-12.1675
▁articulated	-12.1675
▁articulately	-12.1675
▁articulateness	-12.1675
▁articulates	-12.1675
▁articulating	-12.1675
▁articulation	-12.1675
▁articulations	-12.1675
▁articulator	-12.1675
▁articulators	-12.1675
▁articulatory	-12.1675
▁artier	-12.1675
▁artiest	-12.1675
▁artifact	-12.1675
▁artifacts	-12.1675
▁artifactual	-12.1675
▁artifice	-12.1675
▁artificer	-12.1675
▁artificers	-12.1675
▁artifices	-12.1675
▁artificial	-12.1675
▁artificiality	-12.1675
▁artificialize	-12.1675
▁artificialized	-12.1675
▁artificializes	-12.1675
▁artificializing	-12.1675
▁artificially	-12.1675
▁artificialness	-12.1675
▁artificialnesses	-12.1675
▁artillerist	-12.1675
▁artillerists	-12.1675
▁artillery	-12.1675
▁artilleryman	-12.1675
▁artillerymen	-12.1675
▁artily	-12.1675
▁artima	-12.1675
▁artimas	-12.1675
▁artina	-12.1675
▁artiness	-12.1675
▁artiodactyl	-12.1675
▁artiodactyla	-12.1675
▁artisan	-12.1675
▁artisanal	-12.1675
▁artisans	-12.1675
▁artisanship	-12.1675
▁artisanships	-12.1675
▁artist	-12.1675
▁artiste	-12.1675
▁artistes	-12.1675
▁artistic	-12.1675
▁artistically	-12.1675
▁artistry	-12.1675
▁artists	-12.1675
▁artless	-12.1675
▁artlessly	-12.1675
▁artlessness	-12.1675
▁artocarpus	-12.1675
▁artois	-12.1675
▁arts	-12.1675
▁artschools	-12.1675
▁artsier	-12.1675
▁artsiest	-12.1675
▁artsy	-12.1675
▁artur	-12.1675
▁artus	-12.1675
▁artwork	-12.1675
▁artworks	-12.1675
▁arty	-12.1675
▁aruabea	-12.1675
▁aruba	-12.1675
▁arugula	-12.1675
▁arugulas	-12.1675
▁arulo	-12.1675
▁arum	-12.1675
▁arums	-12.1675
▁arun	-12.1675
▁arundel	-12.1675
▁arundell	-12.1675
▁arundinaceous	-12.1675
▁arundinaria	-12.1675
▁arundo	-12.1675
▁arup	-12.1675
▁aruru	-12.1675
▁aruspex	-12.1675
▁aruwimi	-12.1675
▁arv	-12.1675
▁arva	-12.1675
▁arvad	-12.1675
▁arvada	-12.1675
▁arvell	-12.1675
▁arvicola	-12.1675
▁arvid	-12.1675
▁arvie	-12.1675
▁arvilla	-12.1675
▁arvin	-12.1675
▁arvind	-12.1675
▁arvo	-12.1675
▁arvonia	-12.1675
▁arvonio	-12.1675
▁arvos	-12.1675
▁arvy	-12.1675
▁ary	-12.1675
▁aryan	-12.1675
▁aryl	-12.1675
▁aryn	-12.1675
▁arytaenoids	-12.1675
▁arytenoid	-12.1675
▁arytenoids	-12.1675
▁as	-12.1675
▁asa	-12.1675
▁asabi	-12.1675
▁asafetida	-12.1675
▁asahikawa	-12.1675
▁asama	-12.1675
▁asana	-12.1675
▁asanas	-12.1675
▁asanga	-12.1675
▁asante	-12.1675
▁asap	-12.1675
▁asaph	-12.1675
▁asarabacca	-12.1675
▁asare	-12.1675
▁asarh	-12.1675
▁asarum	-12.1675
▁asben	-12.1675
▁asbestos	-12.1675
▁asbestoses	-12.1675
▁asbestosis	-12.1675
▁asbury	-12.1675
▁ascanius	-12.1675
▁ascaphidae	-12.1675
▁ascaphus	-12.1675
▁ascariasis	-12.1675
▁ascarid	-12.1675
▁ascaridae	-12.1675
▁ascaridia	-12.1675
▁ascarids	-12.1675
▁ascaris	-12.1675
▁ascend	-12.1675
▁ascendable	-12.1675
▁ascendancy	-12.1675
▁ascendant	-12.1675
▁ascendants	-12.1675
▁ascended	-12.1675
▁ascendency	-12.1675
▁ascendent	-12.1675
▁ascender	-12.1675
▁ascenders	-12.1675
▁ascending	-12.1675
▁ascends	-12.1675
▁ascension	-12.1675
▁ascensional	-12.1675
▁ascensions	-12.1675
▁ascensiontide	-12.1675
▁ascensive	-12.1675
▁ascent	-12.1675
▁ascents	-12.1675
▁ascertain	-12.1675
▁ascertainable	-12.1675
▁ascertained	-12.1675
▁ascertaining	-12.1675
▁ascertainment	-12.1675
▁ascertains	-12.1675
▁asceses	-12.1675
▁ascesis	-12.1675
▁ascetic	-12.1675
▁ascetically	-12.1675
▁asceticism	-12.1675
▁ascetics	-12.1675
▁asch	-12.1675
▁ascham	-12.1675
▁aschim	-12.1675
▁asci	-12.1675
▁ascidiaceae	-12.1675
▁ascidian	-12.1675
▁ascidians	-12.1675
▁ascidium	-12.1675
▁ascii	-12.1675
▁ascites	-12.1675
▁ascitic	-12.1675
▁asclepiad	-12.1675
▁asclepiadaceae	-12.1675
▁asclepiadaceous	-12.1675
▁asclepiadean	-12.1675
▁asclepiadic	-12.1675
▁asclepias	-12.1675
▁asclepius	-12.1675
▁asco	-12.1675
▁ascocarp	-12.1675
▁ascocarpous	-12.1675
▁ascogonium	-12.1675
▁ascolichen	-12.1675
▁ascoma	-12.1675
▁ascomycete	-12.1675
▁ascomycetes	-12.1675
▁ascomycetous	-12.1675
▁ascomycota	-12.1675
▁ascophyllum	-12.1675
▁ascorbate	-12.1675
▁ascorbic	-12.1675
▁ascospore	-12.1675
▁ascosporic	-12.1675
▁ascot	-12.1675
▁ascots	-12.1675
▁ascribable	-12.1675
▁ascribe	-12.1675
▁ascribed	-12.1675
▁ascribes	-12.1675
▁ascribing	-12.1675
▁ascription	-12.1675
▁ascriptions	-12.1675
▁ascus	-12.1675
▁ascutney	-12.1675
▁asdic	-12.1675
▁ase	-12.1675
▁aseismic	-12.1675
▁aseity	-12.1675
▁asepses	-12.1675
▁asepsis	-12.1675
▁aseptic	-12.1675
▁aseptically	-12.1675
▁asepticize	-12.1675
▁asepticized	-12.1675
▁asepticizes	-12.1675
▁asepticizing	-12.1675
▁asexual	-12.1675
▁asexualisation	-12.1675
▁asexualise	-12.1675
▁asexualised	-12.1675
▁asexualising	-12.1675
▁asexuality	-12.1675
▁asexualization	-12.1675
▁asexualize	-12.1675
▁asexualized	-12.1675
▁asexualizing	-12.1675
▁asexually	-12.1675
▁asgard	-12.1675
▁ash	-12.1675
▁asha	-12.1675
▁ashamed	-12.1675
▁ashamedly	-12.1675
▁ashantee	-12.1675
▁ashantis	-12.1675
▁ashaway	-12.1675
▁ashbaugh	-12.1675
▁ashbey	-12.1675
▁ashburn	-12.1675
▁ashburnham	-12.1675
▁ashby	-12.1675
▁ashcake	-12.1675
▁ashcan	-12.1675
▁ashcans	-12.1675
▁ashdown	-12.1675
▁ashe	-12.1675
▁asheboro	-12.1675
▁ashed	-12.1675
▁ashelman	-12.1675
▁ashely	-12.1675
▁ashen	-12.1675
▁asherton	-12.1675
▁ashes	-12.1675
▁ashet	-12.1675
▁ashets	-12.1675
▁asheville	-12.1675
▁ashfield	-12.1675
▁ashford	-12.1675
▁ashia	-12.1675
▁ashien	-12.1675
▁ashier	-12.1675
▁ashiest	-12.1675
▁ashil	-12.1675
▁ashine	-12.1675
▁ashing	-12.1675
▁ashippun	-12.1675
▁ashjian	-12.1675
▁ashkenazi	-12.1675
▁ashkenazic	-12.1675
▁ashkenazy	-12.1675
▁ashkhabad	-12.1675
▁ashkum	-12.1675
▁ashla	-12.1675
▁ashlan	-12.1675
▁ashland	-12.1675
▁ashlar	-12.1675
▁ashlaring	-12.1675
▁ashlars	-12.1675
▁ashleigh	-12.1675
▁ashlen	-12.1675
▁ashley	-12.1675
▁ashli	-12.1675
▁ashlie	-12.1675
▁ashlin	-12.1675
▁ashling	-12.1675
▁ashly	-12.1675
▁ashman	-12.1675
▁ashmead	-12.1675
▁ashmole	-12.1675
▁ashmore	-12.1675
▁ashok	-12.1675
▁ashore	-12.1675
▁ashplant	-12.1675
▁ashplants	-12.1675
▁ashraf	-12.1675
▁ashram	-12.1675
▁ashrama	-12.1675
▁ashramas	-12.1675
▁ashrams	-12.1675
▁ashtabula	-12.1675
▁ashtanga	-12.1675
▁ashtaroth	-12.1675
▁ashti	-12.1675
▁ashton	-12.1675
▁ashtoreth	-12.1675
▁ashtray	-12.1675
▁ashtrays	-12.1675
▁ashuelot	-12.1675
▁ashur	-12.1675
▁ashura	-12.1675
▁ashurbanipal	-12.1675
▁ashville	-12.1675
▁ashwell	-12.1675
▁ashwin	-12.1675
▁ashwood	-12.1675
▁ashy	-12.1675
▁asia	-12.1675
▁asiago	-12.1675
▁asian	-12.1675
▁asianic	-12.1675
▁asiatic	-12.1675
▁asiaticism	-12.1675
▁asiatics	-12.1675
▁aside	-12.1675
▁asides	-12.1675
▁asilidae	-12.1675
▁asimina	-12.1675
▁asimov	-12.1675
▁asin	-12.1675
▁asinine	-12.1675
▁asininely	-12.1675
▁asininities	-12.1675
▁asininity	-12.1675
▁asio	-12.1675
▁asir	-12.1675
▁asities	-12.1675
▁asity	-12.1675
▁ask	-12.1675
▁askance	-12.1675
▁askant	-12.1675
▁askari	-12.1675
▁askaris	-12.1675
▁asked	-12.1675
▁asker	-12.1675
▁askers	-12.1675
▁askew	-12.1675
▁askey	-12.1675
▁asking	-12.1675
▁askja	-12.1675
▁askov	-12.1675
▁asks	-12.1675
▁askwith	-12.1675
▁aslam	-12.1675
▁aslant	-12.1675
▁asleep	-12.1675
▁aslope	-12.1675
▁asmara	-12.1675
▁asmoday	-12.1675
▁asmodeus	-12.1675
▁asocial	-12.1675
▁asocials	-12.1675
▁asomatous	-12.1675
▁asotin	-12.1675
▁asp	-12.1675
▁aspa	-12.1675
▁aspalathus	-12.1675
▁asparagaceae	-12.1675
▁asparaginase	-12.1675
▁asparagine	-12.1675
▁asparagus	-12.1675
▁aspartame	-12.1675
▁aspartate	-12.1675
▁aspasia	-12.1675
▁aspect	-12.1675
▁aspected	-12.1675
▁aspecting	-12.1675
▁aspects	-12.1675
▁aspectual	-12.1675
▁aspen	-12.1675
▁aspens	-12.1675
▁asper	-12.1675
▁asperges	-12.1675
▁aspergill	-12.1675
▁aspergillaceae	-12.1675
▁aspergillosis	-12.1675
▁aspergillum	-12.1675
▁aspergillus	-12.1675
▁asperities	-12.1675
▁asperity	-12.1675
▁aspermia	-12.1675
▁aspermont	-12.1675
▁aspers	-12.1675
▁asperse	-12.1675
▁aspersed	-12.1675
▁asperses	-12.1675
▁aspersing	-12.1675
▁aspersion	-12.1675
▁aspersions	-12.1675
▁aspersorium	-12.1675
▁asperula	-12.1675
▁asphalt	-12.1675
▁asphalted	-12.1675
▁asphaltic	-12.1675
▁asphalting	-12.1675
▁asphaltite	-12.1675
▁asphaltites	-12.1675
▁asphalts	-12.1675
▁asphaltum	-12.1675
▁asphaltums	-12.1675
▁aspheric	-12.1675
▁aspheterize	-12.1675
▁aspheterized	-12.1675
▁aspheterizes	-12.1675
▁aspheterizing	-12.1675
▁asphodel	-12.1675
▁asphodelaceae	-12.1675
▁asphodeline	-12.1675
▁asphodels	-12.1675
▁asphodelus	-12.1675
▁asphyxia	-12.1675
▁asphyxial	-12.1675
▁asphyxiant	-12.1675
▁asphyxiate	-12.1675
▁asphyxiated	-12.1675
▁asphyxiates	-12.1675
▁asphyxiating	-12.1675
▁asphyxiation	-12.1675
▁asphyxiations	-12.1675
▁asphyxiator	-12.1675
▁asphyxiators	-12.1675
▁aspia	-12.1675
▁aspic	-12.1675
▁aspics	-12.1675
▁aspidelaps	-12.1675
▁aspidiotus	-12.1675
▁aspidistra	-12.1675
▁aspidistras	-12.1675
▁aspidophoroides	-12.1675
▁aspinwall	-12.1675
▁aspirant	-12.1675
▁aspirants	-12.1675
▁aspirate	-12.1675
▁aspirated	-12.1675
▁aspirates	-12.1675
▁aspirating	-12.1675
▁aspiration	-12.1675
▁aspirational	-12.1675
▁aspirations	-12.1675
▁aspirator	-12.1675
▁aspirators	-12.1675
▁aspire	-12.1675
▁aspired	-12.1675
▁aspirer	-12.1675
▁aspirers	-12.1675
▁aspires	-12.1675
▁aspirin	-12.1675
▁aspiring	-12.1675
▁aspiringly	-12.1675
▁aspirins	-12.1675
▁aspleniaceae	-12.1675
▁asplenium	-12.1675
▁asprawl	-12.1675
▁asps	-12.1675
▁asquint	-12.1675
▁ass	-12.1675
▁assafetida	-12.1675
▁assafoetida	-12.1675
▁assafoetidas	-12.1675
▁assagai	-12.1675
▁assagais	-12.1675
▁assai	-12.1675
▁assail	-12.1675
▁assailability	-12.1675
▁assailable	-12.1675
▁assailant	-12.1675
▁assailants	-12.1675
▁assailed	-12.1675
▁assailer	-12.1675
▁assailers	-12.1675
▁assailing	-12.1675
▁assails	-12.1675
▁assam	-12.1675
▁assamese	-12.1675
▁assaria	-12.1675
▁assart	-12.1675
▁assarted	-12.1675
▁assarting	-12.1675
▁assarts	-12.1675
▁assassin	-12.1675
▁assassinate	-12.1675
▁assassinated	-12.1675
▁assassinates	-12.1675
▁assassinating	-12.1675
▁assassination	-12.1675
▁assassinations	-12.1675
▁assassins	-12.1675
▁assault	-12.1675
▁assaulted	-12.1675
▁assaulter	-12.1675
▁assaulters	-12.1675
▁assaulting	-12.1675
▁assaultive	-12.1675
▁assaults	-12.1675
▁assawoman	-12.1675
▁assay	-12.1675
▁assayable	-12.1675
▁assayed	-12.1675
▁assayer	-12.1675
▁assayers	-12.1675
▁assaying	-12.1675
[...]
